<unk>	0
<s>	0
</s>	0
[UNK]	0
[PAD]	0
[SOS]	0
[EOS]	0
[SEP]	0
en	-0
er	-1
ch	-2
▁d	-3
ei	-4
ie	-5
un	-6
▁s	-7
es	-8
in	-9
st	-10
▁a	-11
▁S	-12
ich	-13
ein	-14
sch	-15
▁w	-16
▁un	-17
▁D	-18
or	-19
an	-20
▁der	-21
▁die	-22
ge	-23
te	-24
it	-25
as	-26
▁und	-27
ung	-28
▁i	-29
on	-30
▁b	-31
us	-32
at	-33
▁B	-34
ll	-35
▁m	-36
hr	-37
ten	-38
der	-39
▁ein	-40
▁v	-41
▁A	-42
▁z	-43
▁in	-44
▁h	-45
isch	-46
▁n	-47
ter	-48
ra	-49
ur	-50
em	-51
▁W	-52
▁K	-53
gen	-54
▁M	-55
▁E	-56
ar	-57
▁G	-58
den	-59
ir	-60
▁f	-61
al	-62
de	-63
▁das	-64
▁I	-65
uf	-66
ben	-67
▁F	-68
ür	-69
▁V	-70
▁den	-71
icht	-72
▁k	-73
▁H	-74
eit	-75
um	-76
ut	-77
lich	-78
▁L	-79
ber	-80
▁g	-81
▁ist	-82
ig	-83
el	-84
▁ge	-85
ach	-86
orb	-87
uch	-88
▁er	-89
et	-90
▁P	-91
mm	-92
▁Die	-93
orbisch	-94
▁des	-95
▁T	-96
re	-97
ier	-98
▁mit	-99
▁zu	-100
is	-101
▁an	-102
sen	-103
▁für	-104
ro	-105
▁R	-106
ion	-107
▁J	-108
▁wir	-109
le	-110
▁ver	-111
and	-112
▁auf	-113
▁Sch	-114
▁Z	-115
ft	-116
ck	-117
▁N	-118
▁sich	-119
▁so	-120
▁nicht	-121
▁St	-122
rach	-123
ent	-124
▁sorbisch	-125
ol	-126
▁im	-127
nen	-128
am	-129
ahr	-130
▁dem	-131
rei	-132
▁In	-133
kt	-134
au	-135
▁aus	-136
▁Ver	-137
▁hat	-138
prach	-139
il	-140
ind	-141
itz	-142
aus	-143
▁ha	-144
▁Er	-145
▁U	-146
▁von	-147
▁sie	-148
se	-149
ser	-150
ag	-151
eu	-152
ehr	-153
▁Das	-154
▁l	-155
ungen	-156
▁eine	-157
eh	-158
▁sch	-159
och	-160
lt	-161
▁wer	-162
ann	-163
▁Der	-164
ör	-165
zen	-166
ls	-167
ischen	-168
über	-169
▁be	-170
▁dass	-171
▁Sie	-172
und	-173
est	-174
be	-175
▁sind	-176
än	-177
▁An	-178
ah	-179
chen	-180
▁auch	-181
inder	-182
llen	-183
▁ich	-184
om	-185
▁O	-186
ern	-187
▁ihr	-188
▁werden	-189
▁sein	-190
▁bei	-191
▁war	-192
▁o	-193
esch	-194
▁Jahr	-195
▁über	-196
▁Un	-197
etz	-198
omm	-199
igen	-200
▁es	-201
lle	-202
ver	-203
sp	-204
eiter	-205
▁haben	-206
ort	-207
ot	-208
ff	-209
▁t	-210
ist	-211
eil	-212
ön	-213
eiten	-214
▁vor	-215
ien	-216
▁Ein	-217
▁als	-218
ungs	-219
ste	-220
▁j	-221
▁wie	-222
iel	-223
eg	-224
ation	-225
▁Mit	-226
ik	-227
tet	-228
lei	-229
▁Ich	-230
oh	-231
ät	-232
scha	-233
ige	-234
▁wird	-235
wei	-236
ün	-237
▁unter	-238
▁Wir	-239
ru	-240
▁1	-241
▁st	-242
rä	-243
▁Kinder	-244
▁um	-245
▁sorbischen	-246
▁nach	-247
ger	-248
▁p	-249
eine	-250
▁Sprach	-251
enn	-252
hal	-253
cht	-254
la	-255
▁Sorbisch	-256
▁2	-257
amm	-258
geb	-259
men	-260
schaft	-261
▁zur	-262
▁Ar	-263
lichen	-264
▁zum	-265
▁e	-266
tern	-267
▁Her	-268
iv	-269
gt	-270
lie	-271
▁Vor	-272
▁Ge	-273
▁C	-274
ges	-275
aut	-276
bt	-277
beit	-278
ul	-279
eut	-280
urch	-281
▁bes	-282
sten	-283
rie	-284
▁da	-285
▁Pro	-286
▁wur	-287
wer	-288
▁ent	-289
ick	-290
schen	-291
hen	-292
ische	-293
che	-294
▁Aus	-295
▁En	-296
▁Be	-297
he	-298
pp	-299
ler	-300
ad	-301
liche	-302
▁Auf	-303
▁einen	-304
är	-305
ow	-306
▁du	-307
▁soll	-308
ausitz	-309
▁uns	-310
ne	-311
onder	-312
▁sorbische	-313
uss	-314
▁neu	-315
▁Gr	-316
anz	-317
ken	-318
▁ih	-319
zu	-320
iert	-321
ht	-322
▁Land	-323
▁oder	-324
imm	-325
end	-326
ang	-327
▁Sor	-328
▁durch	-329
ult	-330
▁ges	-331
▁weiter	-332
▁kön	-333
autzen	-334
▁all	-335
her	-336
ott	-337
richt	-338
▁Sp	-339
▁Bautzen	-340
roß	-341
ild	-342
keit	-343
ina	-344
▁sp	-345
tw	-346
äch	-347
▁noch	-348
▁Re	-349
ommen	-350
▁Dom	-351
▁unser	-352
sprach	-353
▁am	-354
▁einer	-355
os	-356
zie	-357
▁Ber	-358
ill	-359
▁20	-360
ühr	-361
▁ander	-362
▁Zu	-363
▁aber	-364
rü	-365
owina	-366
nis	-367
▁wurde	-368
ab	-369
▁Sorben	-370
▁Domowina	-371
lung	-372
▁ste	-373
ers	-374
ieren	-375
pf	-376
for	-377
det	-378
▁dies	-379
ultur	-380
ekt	-381
gel	-382
▁re	-383
▁Herr	-384
heit	-385
wie	-386
▁bis	-387
▁Arbeit	-388
▁mehr	-389
alt	-390
▁Sprache	-391
art	-392
tag	-393
pt	-394
▁kann	-395
üt	-396
▁Im	-397
▁wo	-398
▁Nach	-399
äh	-400
ze	-401
örder	-402
▁je	-403
etzt	-404
▁zwei	-405
▁können	-406
eutsch	-407
tel	-408
ner	-409
gend	-410
olk	-411
ster	-412
uß	-413
▁Gott	-414
ri	-415
ahl	-416
ammen	-417
▁Unter	-418
auf	-419
ater	-420
▁Was	-421
▁ab	-422
ga	-423
tra	-424
utz	-425
rupp	-426
adt	-427
▁Reg	-428
ing	-429
bl	-430
mal	-431
ück	-432
gan	-433
ffen	-434
lan	-435
▁So	-436
▁ber	-437
elt	-438
sam	-439
▁groß	-440
achsen	-441
eben	-442
▁Men	-443
bst	-444
▁nur	-445
ran	-446
mit	-447
eute	-448
00	-449
ieder	-450
all	-451
ert	-452
mein	-453
fen	-454
▁einem	-455
▁Ihr	-456
glich	-457
▁Kon	-458
dig	-459
eich	-460
▁habe	-461
ähr	-462
heiten	-463
▁alle	-464
▁Volk	-465
▁Ges	-466
▁Lausitz	-467
▁Kultur	-468
▁Zeit	-469
▁Gem	-470
schie	-471
▁Bei	-472
▁mir	-473
op	-474
▁Es	-475
land	-476
usammen	-477
▁gew	-478
üs	-479
ionen	-480
aat	-481
▁Grund	-482
rat	-483
ehen	-484
hör	-485
kte	-486
▁mö	-487
llt	-488
og	-489
zeit	-490
wischen	-491
▁Schul	-492
▁will	-493
▁man	-494
▁–	-495
glie	-496
▁lie	-497
▁sowie	-498
▁Pf	-499
▁wel	-500
issen	-501
ium	-502
bei	-503
▁Um	-504
ial	-505
leich	-506
▁Gemein	-507
▁kl	-508
▁Bund	-509
▁Haus	-510
iele	-511
▁Lehr	-512
▁Ober	-513
▁Sorbischen	-514
ierung	-515
lä	-516
▁was	-517
innen	-518
▁Ab	-519
▁mich	-520
bar	-521
enden	-522
▁Ma	-523
atz	-524
▁mein	-525
▁ihre	-526
▁19	-527
▁wieder	-528
▁Schü	-529
ule	-530
▁Stadt	-531
fe	-532
teres	-533
rit	-534
eiß	-535
▁Fra	-536
▁Kl	-537
▁sehr	-538
▁Bild	-539
führ	-540
rechen	-541
vor	-542
ächs	-543
▁kon	-544
assen	-545
▁Menschen	-546
ke	-547
▁le	-548
igkeit	-549
▁schon	-550
▁Geb	-551
▁her	-552
▁viel	-553
was	-554
▁"	-555
amit	-556
ech	-557
fahr	-558
▁Eur	-559
rauch	-560
▁„	-561
▁hin	-562
res	-563
▁Sachsen	-564
▁Proj	-565
ahmen	-566
▁dar	-567
zent	-568
▁Ju	-569
▁Bes	-570
▁Or	-571
▁Schüler	-572
▁(	-573
▁Gesch	-574
ütz	-575
me	-576
acht	-577
▁Da	-578
chte	-579
▁Erzie	-580
form	-581
▁Deutsch	-582
äd	-583
ast	-584
▁gen	-585
▁ins	-586
▁beg	-587
ord	-588
▁besonder	-589
▁201	-590
sk	-591
ell	-592
einen	-593
ehmen	-594
rum	-595
dem	-596
hem	-597
▁fin	-598
▁gef	-599
reis	-600
▁hier	-601
ational	-602
tre	-603
▁Leben	-604
ha	-605
mmer	-606
elbst	-607
▁euch	-608
fer	-609
▁wenn	-610
stit	-611
aupt	-612
▁Mitglie	-613
▁Und	-614
▁waren	-615
dert	-616
▁neue	-617
ohn	-618
▁r	-619
▁Ü	-620
ichtig	-621
ende	-622
▁dieser	-623
▁sprach	-624
stand	-625
▁Region	-626
rin	-627
▁Für	-628
mer	-629
▁et	-630
eist	-631
legen	-632
stell	-633
witz	-634
▁bek	-635
halt	-636
stän	-637
wend	-638
▁El	-639
aten	-640
▁gehör	-641
für	-642
halb	-643
▁müs	-644
▁Bundes	-645
stitut	-646
▁diesem	-647
ußer	-648
▁muss	-649
id	-650
▁Minder	-651
len	-652
▁heute	-653
lausitz	-654
üh	-655
ität	-656
▁dir	-657
eigen	-658
att	-659
▁gemein	-660
urg	-661
verb	-662
▁Wer	-663
iet	-664
lau	-665
▁Sti	-666
▁Jahren	-667
oll	-668
lin	-669
▁Entw	-670
▁Fre	-671
▁seine	-672
nung	-673
unden	-674
bes	-675
eln	-676
▁Interes	-677
▁dort	-678
▁Wie	-679
▁besch	-680
olit	-681
▁Kir	-682
▁gesch	-683
▁diese	-684
▁immer	-685
▁Förder	-686
ält	-687
öff	-688
▁bin	-689
▁Über	-690
▁gemeinsam	-691
amt	-692
ass	-693
ande	-694
arten	-695
▁Veran	-696
agen	-697
bend	-698
sitz	-699
dern	-700
▁Sorbische	-701
amen	-702
orf	-703
▁Jugend	-704
▁müssen	-705
schieden	-706
halten	-707
▁Jahre	-708
▁hatte	-709
▁wollen	-710
iz	-711
▁ihm	-712
▁Stift	-713
arb	-714
utter	-715
icklung	-716
▁beide	-717
geben	-718
ust	-719
▁Institut	-720
ruppe	-721
sorbisch	-722
trag	-723
dien	-724
▁komm	-725
▁bet	-726
cher	-727
▁vom	-728
tschaft	-729
ichte	-730
gangen	-731
▁Nieder	-732
▁Se	-733
los	-734
▁selbst	-735
▁Erzieher	-736
wir	-737
ften	-738
▁ganz	-739
▁damit	-740
gr	-741
ok	-742
▁Mus	-743
gesch	-744
ßen	-745
▁gut	-746
▁ar	-747
▁Teil	-748
äft	-749
keiten	-750
ive	-751
▁Am	-752
▁Du	-753
burg	-754
ennt	-755
▁For	-756
eid	-757
pro	-758
ister	-759
ere	-760
eim	-761
cken	-762
hol	-763
arbeit	-764
kun	-765
age	-766
▁gr	-767
ibt	-768
▁neuen	-769
▁Wasser	-770
unkt	-771
▁dich	-772
bild	-773
gaben	-774
▁sorbischer	-775
▁eines	-776
▁ihnen	-777
▁viele	-778
▁Staat	-779
▁brauch	-780
fol	-781
nisse	-782
▁Ho	-783
amil	-784
▁drei	-785
▁unterst	-786
TA	-787
▁Minderheiten	-788
▁ihn	-789
▁Den	-790
▁zwischen	-791
sche	-792
vers	-793
ITA	-794
nte	-795
▁keine	-796
inister	-797
▁Lehrer	-798
▁kommen	-799
▁wurden	-800
im	-801
▁WITA	-802
▁WITAJ	-803
ett	-804
oren	-805
igt	-806
▁Tag	-807
▁Zusammen	-808
ruppen	-809
▁Eltern	-810
ächsischen	-811
ationen	-812
gra	-813
▁Ko	-814
▁jed	-815
▁entsp	-816
▁Auch	-817
ark	-818
iger	-819
▁sollen	-820
▁Projekt	-821
unk	-822
achen	-823
▁Eine	-824
▁alles	-825
zentrum	-826
lage	-827
▁etwas	-828
▁gu	-829
rich	-830
▁Deutschland	-831
ue	-832
bau	-833
ierte	-834
▁Diese	-835
▁gegen	-836
ürger	-837
▁verschieden	-838
ym	-839
altung	-840
dent	-841
öl	-842
esen	-843
▁Verein	-844
kunft	-845
rukt	-846
spiel	-847
▁Famil	-848
▁welche	-849
ho	-850
▁Bl	-851
▁best	-852
▁gibt	-853
zial	-854
net	-855
▁Schule	-856
ade	-857
ohl	-858
▁wichtig	-859
▁Frei	-860
▁Entwicklung	-861
tellt	-862
ug	-863
▁geb	-864
anden	-865
atur	-866
▁zusammen	-867
ob	-868
▁Fach	-869
▁anderen	-870
▁jetzt	-871
euer	-872
▁Haupt	-873
▁Komm	-874
▁ihrer	-875
our	-876
▁Jes	-877
▁Herrn	-878
▁3	-879
fü	-880
pl	-881
luss	-882
setz	-883
ßn	-884
ker	-885
▁Als	-886
▁Wei	-887
uchen	-888
▁Wenn	-889
▁eigen	-890
verband	-891
öglich	-892
▁allen	-893
egen	-894
ander	-895
prä	-896
▁Them	-897
▁dann	-898
▁seiner	-899
ald	-900
arr	-901
▁Kind	-902
▁verb	-903
randen	-904
▁kein	-905
▁Bet	-906
▁Ange	-907
per	-908
gabe	-909
zept	-910
▁deutsch	-911
ud	-912
▁Me	-913
▁Landes	-914
▁Groß	-915
▁einz	-916
uen	-917
lungs	-918
annt	-919
ap	-920
eb	-921
randenburg	-922
▁ange	-923
▁Unser	-924
▁ersten	-925
▁unsere	-926
▁weitere	-927
aum	-928
twort	-929
rad	-930
kommen	-931
▁sollte	-932
▁Vorsitz	-933
oten	-934
isk	-935
rift	-936
▁Kra	-937
▁Kindern	-938
issenschaft	-939
ernen	-940
▁blei	-941
ruktur	-942
lag	-943
▁Ste	-944
teil	-945
▁Welt	-946
heater	-947
önig	-948
etzen	-949
akt	-950
▁fest	-951
ischer	-952
▁entsprechen	-953
▁sag	-954
ganis	-955
▁dafür	-956
▁seinen	-957
▁beim	-958
fang	-959
ucht	-960
▁Schw	-961
▁dein	-962
enz	-963
▁Gottes	-964
wick	-965
öffent	-966
▁ihren	-967
ank	-968
ret	-969
▁Chr	-970
lten	-971
▁Ent	-972
eits	-973
▁möchte	-974
weg	-975
▁zw	-976
unde	-977
▁denn	-978
▁Hand	-979
gleich	-980
▁doch	-981
▁schön	-982
▁Christ	-983
▁einmal	-984
▁akt	-985
▁Jesus	-986
▁kommt	-987
mittel	-988
▁Interessen	-989
fahren	-990
▁Fr	-991
alen	-992
▁ob	-993
▁Mittel	-994
▁Bau	-995
ße	-996
▁ausge	-997
▁beste	-998
eutschen	-999
rauf	-1000
▁geht	-1001
kl	-1002
gang	-1003
▁Son	-1004
▁ger	-1005
beitet	-1006
licher	-1007
mä	-1008
▁hast	-1009
▁sonder	-1010
▁Regional	-1011
iss	-1012
stät	-1013
stellung	-1014
lagen	-1015
tages	-1016
▁Dies	-1017
▁beiden	-1018
▁Oberlausitz	-1019
erson	-1020
▁Part	-1021
▁Recht	-1022
▁statt	-1023
▁Zukunft	-1024
▁Angelegen	-1025
▁Förderung	-1026
▁erw	-1027
gramm	-1028
▁sondern	-1029
ant	-1030
▁Te	-1031
ition	-1032
ckt	-1033
▁gest	-1034
▁Angeb	-1035
ange	-1036
▁Stra	-1037
eister	-1038
gemein	-1039
▁führ	-1040
▁Europ	-1041
▁Maßn	-1042
▁Staats	-1043
▁Stiftung	-1044
ogen	-1045
plan	-1046
▁Arbeits	-1047
ess	-1048
reg	-1049
▁Gel	-1050
ib	-1051
io	-1052
schule	-1053
lichkeit	-1054
Sprach	-1055
▁mus	-1056
▁Dorf	-1057
▁steht	-1058
▁Intern	-1059
äu	-1060
mus	-1061
immt	-1062
▁Wahl	-1063
▁Woch	-1064
lossen	-1065
▁meine	-1066
▁unserer	-1067
zw	-1068
reich	-1069
▁dieses	-1070
▁Erzieherin	-1071
▁en	-1072
▁eur	-1073
schul	-1074
▁große	-1075
▁Bürger	-1076
▁Mutter	-1077
ak	-1078
if	-1079
fall	-1080
cke	-1081
▁Veranst	-1082
fra	-1083
da	-1084
hne	-1085
▁Aut	-1086
▁Wort	-1087
▁nichts	-1088
▁nie	-1089
▁einge	-1090
▁Gemeinde	-1091
ritt	-1092
▁bew	-1093
eicht	-1094
▁verl	-1095
rieben	-1096
ätz	-1097
nten	-1098
orgen	-1099
▁gehört	-1100
gestellt	-1101
▁Brandenburg	-1102
▁sol	-1103
▁Aber	-1104
gebiet	-1105
ekte	-1106
werk	-1107
▁hatten	-1108
▁zurück	-1109
auer	-1110
eite	-1111
▁Des	-1112
▁jedoch	-1113
arbeiter	-1114
haus	-1115
stag	-1116
▁Neu	-1117
▁Bautzener	-1118
ss	-1119
▁Hier	-1120
▁weil	-1121
ammlung	-1122
staat	-1123
▁Ziel	-1124
etzten	-1125
▁Pfarr	-1126
eitung	-1127
▁Schulen	-1128
▁besonders	-1129
undert	-1130
als	-1131
ließ	-1132
▁Hoch	-1133
deut	-1134
▁Bra	-1135
▁Mal	-1136
▁Möglich	-1137
▁Mitglieder	-1138
▁wür	-1139
esten	-1140
stellen	-1141
▁or	-1142
▁Bildungs	-1143
inn	-1144
Sprachzentrum	-1145
▁Mar	-1146
reichen	-1147
▁Fest	-1148
▁Sied	-1149
▁Buch	-1150
▁Verb	-1151
öt	-1152
itte	-1153
ären	-1154
▁vergangen	-1155
asse	-1156
ual	-1157
▁Bildung	-1158
▁Beispiel	-1159
▁Lie	-1160
▁Ende	-1161
▁gehen	-1162
umen	-1163
▁dazu	-1164
▁allem	-1165
▁andere	-1166
▁anderem	-1167
erb	-1168
jähr	-1169
▁Ger	-1170
andel	-1171
ständ	-1172
sprachigen	-1173
weise	-1174
▁außer	-1175
sprache	-1176
▁Freund	-1177
chten	-1178
▁vier	-1179
treter	-1180
wasser	-1181
hn	-1182
omp	-1183
▁Pl	-1184
▁entwick	-1185
▁Geschichte	-1186
itt	-1187
sicht	-1188
▁sollten	-1189
▁Q	-1190
▁gern	-1191
▁gleich	-1192
sst	-1193
▁Mein	-1194
▁Fin	-1195
▁Euro	-1196
▁national	-1197
▁bil	-1198
alten	-1199
angel	-1200
isten	-1201
▁Spre	-1202
▁erste	-1203
▁Mon	-1204
lungen	-1205
▁Weg	-1206
treten	-1207
▁Weiter	-1208
▁stehen	-1209
ub	-1210
▁wen	-1211
▁Verw	-1212
▁teil	-1213
beiten	-1214
▁darauf	-1215
▁Grundlage	-1216
▁Mo	-1217
▁Rat	-1218
igung	-1219
forder	-1220
mäß	-1221
legt	-1222
▁Lei	-1223
▁bie	-1224
▁erst	-1225
▁dabei	-1226
▁Br	-1227
ennen	-1228
▁Landk	-1229
ma	-1230
erk	-1231
gung	-1232
▁reg	-1233
▁Rahmen	-1234
rot	-1235
ymn	-1236
dung	-1237
lter	-1238
werb	-1239
▁Dres	-1240
▁ohne	-1241
▁Besch	-1242
▁bisher	-1243
▁-	-1244
kauf	-1245
ufen	-1246
▁aller	-1247
fl	-1248
rag	-1249
ilfe	-1250
▁diesen	-1251
öß	-1252
ahn	-1253
▁5	-1254
▁Frie	-1255
▁seit	-1256
▁Mitglied	-1257
▁Ro	-1258
ymnas	-1259
▁Mehr	-1260
ierten	-1261
▁ersch	-1262
bildung	-1263
▁Kommun	-1264
so	-1265
ohle	-1266
rost	-1267
ützen	-1268
▁Besuch	-1269
▁Unterricht	-1270
▁Angelegenheiten	-1271
iven	-1272
▁fol	-1273
führt	-1274
sw	-1275
▁Inform	-1276
▁Person	-1277
▁vergangenen	-1278
▁4	-1279
▁Ort	-1280
▁fre	-1281
zeich	-1282
stehen	-1283
vangel	-1284
▁polit	-1285
ohner	-1286
▁sagte	-1287
▁lernen	-1288
▁Kinderg	-1289
▁möglich	-1290
ellschaft	-1291
lern	-1292
▁Freistaat	-1293
auen	-1294
llte	-1295
▁200	-1296
▁verw	-1297
licht	-1298
unter	-1299
zeu	-1300
▁Dort	-1301
▁Dresden	-1302
▁Sächsischen	-1303
gän	-1304
▁Pol	-1305
▁Sitz	-1306
setzung	-1307
folg	-1308
jahr	-1309
ählt	-1310
▁Außer	-1311
▁großen	-1312
▁Lausitzer	-1313
▁Ha	-1314
asst	-1315
ünf	-1316
▁sehen	-1317
ruck	-1318
▁ern	-1319
▁hör	-1320
punkt	-1321
▁heiß	-1322
wohner	-1323
▁Struktur	-1324
▁Maßnahmen	-1325
▁Ä	-1326
äter	-1327
▁Braunk	-1328
ia	-1329
▁bzw	-1330
▁Gruppe	-1331
▁Siedlungs	-1332
ale	-1333
eig	-1334
litz	-1335
▁Wor	-1336
racht	-1337
räger	-1338
▁Mitarbeiter	-1339
▁Kont	-1340
▁finden	-1341
minister	-1342
neh	-1343
ützt	-1344
▁Dar	-1345
▁König	-1346
▁seinem	-1347
ächsische	-1348
▁sprechen	-1349
▁Bed	-1350
▁eh	-1351
▁fr	-1352
anzen	-1353
▁Heim	-1354
▁Durch	-1355
▁Schlei	-1356
▁Ch	-1357
ahme	-1358
iums	-1359
▁Hin	-1360
▁liegt	-1361
▁Kirche	-1362
▁Ö	-1363
abei	-1364
elle	-1365
▁Dabei	-1366
▁Lebens	-1367
einander	-1368
si	-1369
unst	-1370
▁Gymnas	-1371
▁bereits	-1372
▁All	-1373
▁Aufgaben	-1374
richtungen	-1375
kehr	-1376
▁Vater	-1377
▁machen	-1378
▁erhalten	-1379
▁Familien	-1380
kon	-1381
alis	-1382
äfts	-1383
ondere	-1384
ständig	-1385
▁Unterst	-1386
sprachige	-1387
ka	-1388
fte	-1389
kennt	-1390
olitik	-1391
▁öffent	-1392
des	-1393
sel	-1394
urz	-1395
▁Je	-1396
▁Ta	-1397
eichen	-1398
▁Vertreter	-1399
erv	-1400
▁get	-1401
eiden	-1402
▁Hause	-1403
▁denen	-1404
▁Leiter	-1405
eum	-1406
fach	-1407
raum	-1408
sent	-1409
▁Beg	-1410
▁Tre	-1411
änder	-1412
ördert	-1413
du	-1414
▁Fl	-1415
olog	-1416
unge	-1417
▁Akt	-1418
▁nun	-1419
▁voll	-1420
▁Niederlausitz	-1421
nik	-1422
zig	-1423
▁gehören	-1424
▁Dazu	-1425
▁richt	-1426
icher	-1427
▁leben	-1428
aterial	-1429
leben	-1430
verein	-1431
▁Entsch	-1432
▁Unterstütz	-1433
▁sei	-1434
ragen	-1435
▁größ	-1436
otwend	-1437
besondere	-1438
▁Verantwort	-1439
ic	-1440
hung	-1441
▁Namen	-1442
▁weiteren	-1443
kün	-1444
lte	-1445
ote	-1446
ielt	-1447
rank	-1448
▁Jan	-1449
▁gute	-1450
▁kultur	-1451
▁Siedlungsgebiet	-1452
hält	-1453
▁Theater	-1454
uche	-1455
▁Ide	-1456
ölker	-1457
▁Vorsch	-1458
altungen	-1459
versammlung	-1460
▁gem	-1461
ielen	-1462
schaften	-1463
▁Deshalb	-1464
▁letzten	-1465
annte	-1466
gesetz	-1467
▁Konzept	-1468
ost	-1469
äng	-1470
▁bef	-1471
schutz	-1472
▁Aufgabe	-1473
itu	-1474
iere	-1475
▁Gen	-1476
▁pro	-1477
äre	-1478
äten	-1479
▁deine	-1480
▁werde	-1481
arbeitet	-1482
▁Kindertages	-1483
ahren	-1484
ismus	-1485
▁weiß	-1486
▁Sprachen	-1487
ov	-1488
000	-1489
iat	-1490
ches	-1491
▁Rad	-1492
▁Geist	-1493
▁Kunst	-1494
▁Musik	-1495
▁recht	-1496
▁Landkreis	-1497
▁Wirtschaft	-1498
ände	-1499
▁ben	-1500
schuss	-1501
▁Crost	-1502
▁Feuer	-1503
▁heraus	-1504
ubl	-1505
angen	-1506
iell	-1507
uter	-1508
▁lang	-1509
gruppe	-1510
▁Jahrh	-1511
▁Schutz	-1512
▁Crostwitz	-1513
▁Hö	-1514
erst	-1515
sph	-1516
▁Sol	-1517
schech	-1518
▁Unsere	-1519
ünst	-1520
▁Heimat	-1521
▁Minister	-1522
▁Ur	-1523
utzt	-1524
ätze	-1525
▁vers	-1526
▁Christus	-1527
▁Programm	-1528
20	-1529
ehn	-1530
▁Gew	-1531
inden	-1532
▁Zwei	-1533
▁schrei	-1534
▁Geschäfts	-1535
..	-1536
gest	-1537
tete	-1538
athol	-1539
▁Serb	-1540
▁Sonn	-1541
stelle	-1542
▁Damit	-1543
▁deutschen	-1544
sb	-1545
eigt	-1546
▁Frau	-1547
▁eben	-1548
schied	-1549
vorstand	-1550
▁Besonder	-1551
bus	-1552
atür	-1553
mann	-1554
ädchen	-1555
gar	-1556
rieb	-1557
▁fünf	-1558
▁näch	-1559
▁arbeiten	-1560
▁Unterstützung	-1561
zt	-1562
ats	-1563
▁Rei	-1564
blick	-1565
genommen	-1566
▁Außerdem	-1567
äum	-1568
kten	-1569
▁Stu	-1570
▁Tex	-1571
ingen	-1572
▁bist	-1573
▁Beruf	-1574
▁stamm	-1575
▁inform	-1576
reu	-1577
orden	-1578
werda	-1579
▁Zusammenarbeit	-1580
ko	-1581
ringen	-1582
▁einzel	-1583
▁Mädchen	-1584
rüh	-1585
▁Thema	-1586
gruppen	-1587
▁insbesondere	-1588
▁stär	-1589
▁Abend	-1590
▁Fragen	-1591
▁Landtag	-1592
sorbischen	-1593
▁Entscheid	-1594
grün	-1595
yers	-1596
ottbus	-1597
▁klein	-1598
▁schne	-1599
▁einige	-1600
▁Projekte	-1601
▁Vorsitzende	-1602
gew	-1603
zug	-1604
▁199	-1605
▁Dem	-1606
ellen	-1607
gesamt	-1608
ichtet	-1609
nehmen	-1610
▁Gebiet	-1611
▁notwend	-1612
tem	-1613
▁Au	-1614
utzen	-1615
meister	-1616
▁for	-1617
teress	-1618
▁bleibt	-1619
▁6	-1620
▁zie	-1621
▁Dach	-1622
genden	-1623
▁dan	-1624
▁Plan	-1625
ichten	-1626
itäten	-1627
glichen	-1628
▁Cottbus	-1629
gehen	-1630
▁schw	-1631
yerswerda	-1632
▁eng	-1633
annten	-1634
▁erm	-1635
eitet	-1636
▁interess	-1637
tei	-1638
iges	-1639
irekt	-1640
▁Best	-1641
▁Heil	-1642
▁Mann	-1643
▁Stimm	-1644
▁Jahres	-1645
▁Hoyerswerda	-1646
änd	-1647
▁Zw	-1648
▁Ihre	-1649
▁Hilfe	-1650
▁Meine	-1651
▁offen	-1652
igkeiten	-1653
▁gestern	-1654
▁sächsischen	-1655
immel	-1656
▁jeder	-1657
▁entsch	-1658
▁lassen	-1659
fern	-1660
ient	-1661
iter	-1662
allen	-1663
ublik	-1664
▁Dien	-1665
▁Disk	-1666
▁Kraft	-1667
zwischen	-1668
▁Pfarrer	-1669
ählen	-1670
▁Alle	-1671
▁frei	-1672
ternehmen	-1673
ate	-1674
von	-1675
▁18	-1676
▁La	-1677
affen	-1678
▁Seit	-1679
▁Tour	-1680
gesetzt	-1681
▁National	-1682
▁Stiftungs	-1683
endet	-1684
denten	-1685
▁Sport	-1686
▁Finanz	-1687
▁Träger	-1688
▁besser	-1689
blem	-1690
ienen	-1691
▁Trad	-1692
dienst	-1693
▁findet	-1694
▁brauchen	-1695
▁unterstützt	-1696
ös	-1697
▁em	-1698
zahl	-1699
▁Zum	-1700
▁bel	-1701
▁Gesetz	-1702
▁Prä	-1703
▁Sach	-1704
▁stammt	-1705
▁Gruppen	-1706
▁Vereine	-1707
▁Institutionen	-1708
off	-1709
nitz	-1710
uten	-1711
▁tun	-1712
▁Grün	-1713
hnen	-1714
ädag	-1715
▁Bis	-1716
▁Dör	-1717
▁Von	-1718
▁Spiel	-1719
▁Gesprä	-1720
▁Volkes	-1721
▁7	-1722
usst	-1723
▁hel	-1724
örlitz	-1725
▁veran	-1726
▁wicht	-1727
führung	-1728
▁Himmel	-1729
▁Wochen	-1730
agt	-1731
digt	-1732
▁beh	-1733
anten	-1734
llten	-1735
gelmäß	-1736
▁Natur	-1737
▁heißt	-1738
▁lange	-1739
▁Familie	-1740
äm	-1741
hof	-1742
▁Ex	-1743
▁Sa	-1744
voll	-1745
▁War	-1746
▁nah	-1747
▁Vers	-1748
itionen	-1749
▁könnte	-1750
▁region	-1751
eren	-1752
▁Ergeb	-1753
▁Weise	-1754
▁Anfang	-1755
▁unterstützen	-1756
of	-1757
spr	-1758
▁Gast	-1759
geführt	-1760
▁Klasse	-1761
▁beschäft	-1762
▁Wissenschaft	-1763
eck	-1764
fel	-1765
buch	-1766
igit	-1767
▁Mich	-1768
▁Situ	-1769
▁Spree	-1770
▁Leip	-1771
ändern	-1772
▁ihrem	-1773
▁Heraus	-1774
▁organis	-1775
br	-1776
▁oft	-1777
stätten	-1778
▁Themen	-1779
hand	-1780
schw	-1781
roffen	-1782
wendung	-1783
▁Görlitz	-1784
▁schnell	-1785
ron	-1786
▁Gä	-1787
echs	-1788
ogra	-1789
ffent	-1790
under	-1791
▁Erfahr	-1792
▁später	-1793
istor	-1794
zogen	-1795
▁Museum	-1796
▁Kindergarten	-1797
▁verschiedene	-1798
orn	-1799
lege	-1800
▁Ged	-1801
▁Nutz	-1802
▁habt	-1803
▁klar	-1804
nehmer	-1805
tragen	-1806
hin	-1807
▁Dr	-1808
▁Wo	-1809
▁kleinen	-1810
▁spricht	-1811
hren	-1812
pfen	-1813
räge	-1814
amals	-1815
▁Serbsk	-1816
ilt	-1817
örter	-1818
▁Glau	-1819
isches	-1820
▁Braunkohle	-1821
▁Bundesvorstand	-1822
este	-1823
onst	-1824
äude	-1825
▁Ost	-1826
▁Form	-1827
▁Sohn	-1828
▁Heute	-1829
▁geben	-1830
▁bleiben	-1831
▁Internet	-1832
äuf	-1833
berg	-1834
reiche	-1835
▁finanz	-1836
▁Jahrhundert	-1837
uer	-1838
▁Bo	-1839
▁Gl	-1840
scht	-1841
igten	-1842
achtet	-1843
ission	-1844
atürlich	-1845
wirtschaft	-1846
ördern	-1847
▁Oster	-1848
▁Stand	-1849
▁sagen	-1850
▁nieder	-1851
▁Bereich	-1852
▁Problem	-1853
▁Schleife	-1854
zi	-1855
▁Brie	-1856
▁rund	-1857
ations	-1858
min	-1859
▁15	-1860
kret	-1861
uchs	-1862
wert	-1863
▁Erw	-1864
▁sla	-1865
ordne	-1866
stadt	-1867
▁sieht	-1868
▁Medien	-1869
▁konnte	-1870
ersön	-1871
schrei	-1872
▁meiner	-1873
▁Veranstaltungen	-1874
öh	-1875
▁mal	-1876
ücher	-1877
▁Fahr	-1878
▁alten	-1879
▁evangel	-1880
".	-1881
leb	-1882
sem	-1883
ettbe	-1884
änger	-1885
liches	-1886
▁bitte	-1887
▁jeden	-1888
▁verst	-1889
▁würde	-1890
ordnung	-1891
▁sicher	-1892
▁Öffent	-1893
arbeiten	-1894
▁Angebot	-1895
▁Kirchen	-1896
rüf	-1897
yst	-1898
aden	-1899
schn	-1900
stra	-1901
welt	-1902
▁Fuß	-1903
▁Kat	-1904
▁bem	-1905
▁dür	-1906
▁Schu	-1907
▁Ident	-1908
▁Dieses	-1909
▁besteht	-1910
falls	-1911
itiat	-1912
stück	-1913
ument	-1914
▁darf	-1915
▁Interesse	-1916
gie	-1917
ment	-1918
mitt	-1919
▁Art	-1920
▁tre	-1921
regierung	-1922
▁Mär	-1923
andid	-1924
▁Geld	-1925
▁derzeit	-1926
les	-1927
urt	-1928
bung	-1929
immer	-1930
reserv	-1931
▁Augen	-1932
▁deren	-1933
▁Forsch	-1934
▁unterschied	-1935
urs	-1936
echt	-1937
hang	-1938
wehr	-1939
▁Fel	-1940
▁empf	-1941
reicht	-1942
▁Berat	-1943
▁regelmäß	-1944
ren	-1945
erin	-1946
satz	-1947
▁Aug	-1948
haupt	-1949
▁Zent	-1950
▁Leute	-1951
schrift	-1952
ielleicht	-1953
▁Interessenten	-1954
▁CD	-1955
mand	-1956
▁Satz	-1957
▁Wohn	-1958
▁wohl	-1959
ziehen	-1960
prochen	-1961
schwitz	-1962
▁Partei	-1963
▁helfen	-1964
▁kathol	-1965
richtung	-1966
▁bekannt	-1967
▁besondere	-1968
▁De	-1969
▁Ja	-1970
rieg	-1971
▁wün	-1972
iosph	-1973
▁August	-1974
▁bietet	-1975
▁Öffentlichkeit	-1976
▁8	-1977
aul	-1978
äck	-1979
▁Ob	-1980
etho	-1981
▁Tät	-1982
▁erz	-1983
besser	-1984
▁Eigen	-1985
▁Gegen	-1986
▁Diskuss	-1987
▁darüber	-1988
iosphären	-1989
od	-1990
▁Ins	-1991
▁Kar	-1992
rates	-1993
uelle	-1994
▁ehem	-1995
achten	-1996
stätte	-1997
ünstler	-1998
▁Mensch	-1999
iosphärenreserv	-2000
ph	-2001
bat	-2002
kir	-2003
dete	-2004
ftig	-2005
jekt	-2006
laub	-2007
grund	-2008
▁Berlin	-2009
▁stellen	-2010
▁Unternehmen	-2011
▁He	-2012
▁Zahl	-2013
▁Dafür	-2014
▁Jetzt	-2015
▁davon	-2016
▁Vereins	-2017
▁Situation	-2018
olz	-2019
mals	-2020
rakt	-2021
orben	-2022
ädagog	-2023
▁Frage	-2024
▁konnten	-2025
eht	-2026
gef	-2027
▁ex	-2028
rist	-2029
twor	-2030
wohl	-2031
zess	-2032
▁Pap	-2033
▁Wald	-2034
andelt	-2035
setzen	-2036
▁Micha	-2037
▁Dieser	-2038
▁gerade	-2039
▁wissen	-2040
ettbewerb	-2041
▁Möglichkeit	-2042
öch	-2043
▁1.	-2044
▁ir	-2045
▁Man	-2046
▁Wel	-2047
▁Win	-2048
▁Städ	-2049
uellen	-2050
zeitig	-2051
▁Volks	-2052
▁ehemal	-2053
▁gegeben	-2054
▁gemacht	-2055
▁bekommen	-2056
▁gekommen	-2057
▁wissenschaft	-2058
qu	-2059
ärt	-2060
ions	-2061
▁Fil	-2062
recht	-2063
zlich	-2064
▁wirk	-2065
▁Gener	-2066
schluss	-2067
schulen	-2068
▁beteil	-2069
▁schwer	-2070
▁Organis	-2071
▁Identität	-2072
lo	-2073
▁ä	-2074
ege	-2075
▁Kn	-2076
ommer	-2077
▁sogar	-2078
altungs	-2079
▁Möglichkeiten	-2080
arf	-2081
geln	-2082
▁prä	-2083
ystem	-2084
▁Fall	-2085
liegen	-2086
▁Klein	-2087
▁Neben	-2088
▁junge	-2089
ingungen	-2090
▁Nachbar	-2091
▁Informationen	-2092
gern	-2093
▁Bew	-2094
▁umf	-2095
▁Sold	-2096
▁Kreis	-2097
▁Seite	-2098
äischen	-2099
sorbische	-2100
äl	-2101
err	-2102
▁Brü	-2103
artha	-2104
ausch	-2105
▁heut	-2106
▁Ihnen	-2107
▁kleine	-2108
▁bestimm	-2109
▁insgesamt	-2110
gte	-2111
essen	-2112
nahme	-2113
▁Tage	-2114
▁Woche	-2115
▁jedes	-2116
mitteln	-2117
▁gegrün	-2118
▁sozial	-2119
▁vielen	-2120
▁Leipzig	-2121
▁gefördert	-2122
▁entwickelt	-2123
sie	-2124
▁ja	-2125
druck	-2126
unkte	-2127
▁ganze	-2128
▁guten	-2129
▁Wissen	-2130
▁Tätigkeit	-2131
rem	-2132
ute	-2133
▁Sin	-2134
istik	-2135
usätz	-2136
▁gesehen	-2137
▁Zusammenhang	-2138
ele	-2139
fft	-2140
▁Ru	-2141
eint	-2142
aufen	-2143
ester	-2144
▁Qual	-2145
▁erfü	-2146
▁gilt	-2147
ferenz	-2148
▁Nacht	-2149
▁Platz	-2150
▁führt	-2151
geordne	-2152
▁Politik	-2153
▁einfach	-2154
▁verschiedenen	-2155
ks	-2156
atik	-2157
▁hal	-2158
eisten	-2159
▁Verfü	-2160
▁keinen	-2161
▁kennen	-2162
▁Schrift	-2163
▁spielen	-2164
▁Deutschen	-2165
▁einzelnen	-2166
sprachigkeit	-2167
▁Bi	-2168
fest	-2169
laden	-2170
▁Mill	-2171
▁bede	-2172
▁weit	-2173
▁Tages	-2174
▁fördern	-2175
▁stammen	-2176
▁Erziehung	-2177
kel	-2178
ppe	-2179
▁frü	-2180
ivers	-2181
▁Dann	-2182
▁Denn	-2183
▁also	-2184
▁solche	-2185
Sorbisch	-2186
gemeinde	-2187
▁Sonntag	-2188
unterricht	-2189
▁Teilnehmer	-2190
▁Jugendlichen	-2191
▁mo	-2192
ppen	-2193
▁bed	-2194
▁geh	-2195
haben	-2196
▁Aktiv	-2197
▁Gäste	-2198
▁erfolg	-2199
▁Gemeinden	-2200
▁Strukturw	-2201
▁nationalen	-2202
▁durchgeführt	-2203
sver	-2204
uren	-2205
▁Grem	-2206
▁Komp	-2207
▁Stat	-2208
▁verh	-2209
erecht	-2210
▁Ideen	-2211
▁Maria	-2212
▁entst	-2213
▁Direkt	-2214
▁Herzen	-2215
▁Sozial	-2216
▁Initiat	-2217
▁Verfügung	-2218
▁sächsische	-2219
▁Lin	-2220
eiche	-2221
▁seid	-2222
richten	-2223
▁Bedeut	-2224
▁dürfen	-2225
▁ganzen	-2226
▁Gebäude	-2227
▁Hochwasser	-2228
▁gemeinsame	-2229
bil	-2230
dorf	-2231
▁woh	-2232
lernen	-2233
▁grund	-2234
okument	-2235
▁Sicher	-2236
▁bilden	-2237
▁histor	-2238
▁nutzen	-2239
▁Angebote	-2240
yn	-2241
üd	-2242
aff	-2243
mar	-2244
ator	-2245
gelt	-2246
▁Vort	-2247
ichter	-2248
▁Frauen	-2249
▁Pflege	-2250
▁Stelle	-2251
▁mehrere	-2252
▁nächsten	-2253
ante	-2254
ober	-2255
▁erh	-2256
▁Höhe	-2257
▁ermö	-2258
▁vert	-2259
weisen	-2260
▁Liebe	-2261
▁Tisch	-2262
▁dessen	-2263
▁hinter	-2264
iteratur	-2265
▁welches	-2266
▁Material	-2267
▁erfahren	-2268
▁öffentlichen	-2269
▁9	-2270
wirk	-2271
▁Mil	-2272
▁tra	-2273
▁Beit	-2274
▁Eben	-2275
▁ober	-2276
▁wäre	-2277
▁zehn	-2278
▁intern	-2279
▁meinen	-2280
▁Regierung	-2281
ita	-2282
komm	-2283
räum	-2284
ässt	-2285
▁Beh	-2286
▁Bem	-2287
etzte	-2288
leist	-2289
▁Fort	-2290
▁Hast	-2291
schütz	-2292
▁Kirch	-2293
▁Umwelt	-2294
▁zugleich	-2295
alisierung	-2296
▁Einwohner	-2297
▁Minderheit	-2298
einrichtungen	-2299
mel	-2300
▁Wi	-2301
▁Bel	-2302
▁Gro	-2303
▁bemü	-2304
immung	-2305
mittag	-2306
nissen	-2307
▁angeb	-2308
▁stand	-2309
▁Garten	-2310
▁Prozent	-2311
▁inzwischen	-2312
EA	-2313
vent	-2314
▁Müh	-2315
▁sah	-2316
▁sel	-2317
ember	-2318
rachten	-2319
▁fahren	-2320
▁notwendig	-2321
▁Verantwortung	-2322
vo	-2323
▁ö	-2324
dre	-2325
othe	-2326
▁Amt	-2327
▁kam	-2328
inner	-2329
ächst	-2330
▁Blick	-2331
▁Wirken	-2332
▁Michael	-2333
▁Tschech	-2334
▁unseren	-2335
istischen	-2336
▁Bedeutung	-2337
▁Gemeinder	-2338
▁Vorsitzenden	-2339
wa	-2340
▁Vo	-2341
onnen	-2342
▁erlä	-2343
▁fert	-2344
▁Krabat	-2345
geschlossen	-2346
els	-2347
zel	-2348
▁Fa	-2349
rägt	-2350
ehren	-2351
itten	-2352
völker	-2353
▁europ	-2354
▁lässt	-2355
▁gewähr	-2356
▁eigenen	-2357
▁wichtige	-2358
kenntnisse	-2359
▁Umsetzung	-2360
▁natürlich	-2361
▁entsprechenden	-2362
bli	-2363
▁Ap	-2364
▁Nov	-2365
▁Erde	-2366
▁Kran	-2367
▁Viel	-2368
▁Wend	-2369
indung	-2370
riften	-2371
▁Poliz	-2372
unehmen	-2373
▁Gleich	-2374
▁Vorber	-2375
▁suchen	-2376
▁Sitzung	-2377
▁brauche	-2378
▁Besucher	-2379
▁Gymnasium	-2380
▁Gesellschaft	-2381
▁zweisprachigen	-2382
1.	-2383
ude	-2384
itel	-2385
ling	-2386
weis	-2387
▁Dan	-2388
▁Fir	-2389
▁Paul	-2390
▁wenig	-2391
mitglie	-2392
▁Selbst	-2393
▁damals	-2394
▁stellt	-2395
▁Partner	-2396
ausschuss	-2397
▁10	-2398
▁tä	-2399
ball	-2400
eten	-2401
iels	-2402
▁Hei	-2403
amenz	-2404
etter	-2405
geber	-2406
▁Noch	-2407
▁Raum	-2408
▁deinen	-2409
▁hinaus	-2410
▁nehmen	-2411
▁braucht	-2412
verbandes	-2413
▁Gespräch	-2414
▁Besonders	-2415
▁Geh	-2416
abend	-2417
tlich	-2418
▁Dank	-2419
▁erkl	-2420
▁wahr	-2421
▁Viele	-2422
▁wegen	-2423
leitung	-2424
▁Rechts	-2425
▁Winter	-2426
▁vorber	-2427
▁zusätz	-2428
ließlich	-2429
mittlung	-2430
▁Glauben	-2431
▁Zugleich	-2432
▁international	-2433
fäh	-2434
▁wi	-2435
könig	-2436
änden	-2437
ischof	-2438
▁besten	-2439
▁bieten	-2440
▁hervor	-2441
▁irgend	-2442
▁niemand	-2443
▁gegenüber	-2444
▁Erfahrungen	-2445
▁Herausforder	-2446
▁Veranstaltung	-2447
aters	-2448
auber	-2449
präsi	-2450
▁fort	-2451
ließen	-2452
ologie	-2453
▁Produ	-2454
▁begrü	-2455
▁Erhalt	-2456
▁Kamenz	-2457
▁Univers	-2458
▁regelmäßig	-2459
tum	-2460
▁CDU	-2461
▁LEA	-2462
▁Per	-2463
▁Zur	-2464
▁gez	-2465
▁spe	-2466
ohann	-2467
▁Ener	-2468
▁Nein	-2469
▁digit	-2470
▁setzen	-2471
▁wollte	-2472
▁Betrieb	-2473
▁Gericht	-2474
▁arbeitet	-2475
▁Gemeinschaft	-2476
DR	-2477
lüs	-2478
inge	-2479
▁gab	-2480
▁hoh	-2481
ament	-2482
▁Netz	-2483
▁Sommer	-2484
▁Frieden	-2485
▁genutzt	-2486
▁deutsche	-2487
stellungen	-2488
▁politischen	-2489
).	-2490
ica	-2491
▁17	-2492
▁30	-2493
▁pf	-2494
▁Ter	-2495
ieten	-2496
teten	-2497
▁Chem	-2498
▁fast	-2499
▁Alter	-2500
ikation	-2501
▁jungen	-2502
▁Freunde	-2503
▁einigen	-2504
▁gewesen	-2505
▁richtig	-2506
▁bestimmt	-2507
▁Aktivitäten	-2508
are	-2509
rom	-2510
wes	-2511
zus	-2512
ibor	-2513
▁Ind	-2514
▁Stud	-2515
▁Wahr	-2516
▁schö	-2517
rüfung	-2518
swartha	-2519
▁Europa	-2520
▁Johann	-2521
▁Wörter	-2522
▁erneut	-2523
▁Feuerwehr	-2524
▁außerhalb	-2525
▁gegründet	-2526
▁Ausbildung	-2527
▁Sächsische	-2528
Ver	-2529
ase	-2530
kre	-2531
rän	-2532
▁Ph	-2533
eier	-2534
läge	-2535
plus	-2536
alter	-2537
schau	-2538
▁Berg	-2539
▁Pfer	-2540
▁Rund	-2541
▁Polen	-2542
▁Antrag	-2543
▁Dienst	-2544
▁Geburt	-2545
▁großer	-2546
▁Radibor	-2547
▁unseres	-2548
▁welcher	-2549
▁Haushalt	-2550
▁Staatsminister	-2551
del	-2552
ore	-2553
uck	-2554
uft	-2555
lauf	-2556
spro	-2557
wald	-2558
▁Gut	-2559
▁dah	-2560
▁weg	-2561
indet	-2562
▁Herz	-2563
▁Lern	-2564
▁Mark	-2565
▁fand	-2566
▁übern	-2567
▁geplan	-2568
▁besonderen	-2569
▁Unterrichts	-2570
▁Königswartha	-2571
▁ü	-2572
ara	-2573
spl	-2574
wig	-2575
heim	-2576
▁Tür	-2577
▁erk	-2578
▁hil	-2579
platz	-2580
sehen	-2581
▁Rück	-2582
isiert	-2583
leiter	-2584
▁hören	-2585
gesehen	-2586
sichtig	-2587
▁Einzel	-2588
▁Wahlen	-2589
völkerung	-2590
▁ebenfalls	-2591
▁Verwaltungs	-2592
▁gemeinsamen	-2593
ack	-2594
alb	-2595
anw	-2596
ünd	-2597
▁25	-2598
ifiz	-2599
kmal	-2600
ußen	-2601
▁Früh	-2602
▁ging	-2603
▁Kandid	-2604
▁allein	-2605
▁unserem	-2606
▁schreibt	-2607
▁wirklich	-2608
▁Erzieherinnen	-2609
ival	-2610
läss	-2611
ohnt	-2612
oper	-2613
bteil	-2614
örper	-2615
▁Auto	-2616
▁Klim	-2617
▁zahl	-2618
andeln	-2619
denken	-2620
wiesen	-2621
▁Seine	-2622
▁führen	-2623
▁gesagt	-2624
▁kannst	-2625
▁versch	-2626
▁vertreten	-2627
▁Entscheidung	-2628
äus	-2629
gten	-2630
▁Pos	-2631
▁gar	-2632
gessen	-2633
▁Richt	-2634
bliothe	-2635
unktion	-2636
▁Wenden	-2637
▁deshalb	-2638
▁meisten	-2639
▁Personen	-2640
▁Soldaten	-2641
▁Vorhaben	-2642
▁Verwaltung	-2643
▁Wettbewerb	-2644
▁entwickeln	-2645
▁Muttersprache	-2646
▁Di	-2647
fass	-2648
▁Gef	-2649
ordin	-2650
▁Kult	-2651
▁lieb	-2652
estens	-2653
▁Freude	-2654
▁Publik	-2655
▁Vorstand	-2656
▁Diskussion	-2657
nt	-2658
anc	-2659
ont	-2660
▁Brä	-2661
▁Bür	-2662
▁Gra	-2663
▁Konz	-2664
ustrie	-2665
▁Kennt	-2666
▁gesam	-2667
jährige	-2668
▁Schwer	-2669
▁halten	-2670
▁persön	-2671
▁bestehen	-2672
▁erläuter	-2673
▁erweiter	-2674
▁entstehen	-2675
▁gesprochen	-2676
▁Einrichtungen	-2677
...	-2678
ral	-2679
uni	-2680
oler	-2681
ällt	-2682
▁Nur	-2683
▁hät	-2684
estag	-2685
spekt	-2686
▁daran	-2687
▁macht	-2688
▁moder	-2689
▁Bericht	-2690
▁Ausstellung	-2691
▁Strukturwandel	-2692
ufe	-2693
üch	-2694
▁Su	-2695
ativ	-2696
dell	-2697
vest	-2698
wegs	-2699
anken	-2700
reise	-2701
stein	-2702
▁Dial	-2703
kennen	-2704
ährend	-2705
▁engag	-2706
▁sechs	-2707
ierungs	-2708
▁umfang	-2709
▁mussten	-2710
▁zweiten	-2711
▁Literatur	-2712
▁entscheiden	-2713
rö	-2714
ehm	-2715
▁ko	-2716
tens	-2717
▁gel	-2718
veran	-2719
▁Kopf	-2720
▁März	-2721
▁Werk	-2722
mutter	-2723
▁Rolle	-2724
▁neuer	-2725
auftrag	-2726
▁folgen	-2727
▁möchten	-2728
▁präsent	-2729
ens	-2730
▁Al	-2731
▁bl	-2732
häng	-2733
▁Kap	-2734
▁Gest	-2735
▁anzu	-2736
▁Leist	-2737
▁aufge	-2738
▁neben	-2739
▁konkre	-2740
▁Kontakt	-2741
▁Freistaates	-2742
▁Grundschule	-2743
Sprachzentrums	-2744
▁Bürgermeister	-2745
bed	-2746
lehr	-2747
▁...	-2748
▁Sep	-2749
ograf	-2750
▁Klei	-2751
▁Weiß	-2752
▁heil	-2753
▁Bemüh	-2754
▁Nicht	-2755
▁anerk	-2756
▁morgen	-2757
▁Bestand	-2758
▁gefunden	-2759
▁Studenten	-2760
▁wirtschaft	-2761
▁beschlossen	-2762
je	-2763
bet	-2764
urm	-2765
weit	-2766
▁Bil	-2767
▁Wol	-2768
geste	-2769
kauft	-2770
ärten	-2771
▁Film	-2772
▁Juni	-2773
▁Sein	-2774
führer	-2775
reiten	-2776
tember	-2777
▁Stein	-2778
▁Bücher	-2779
▁Erfolg	-2780
▁Völker	-2781
▁eigene	-2782
jährigen	-2783
setzungen	-2784
▁Mehrheit	-2785
▁Bevölkerung	-2786
az	-2787
wahl	-2788
▁Sün	-2789
▁ged	-2790
▁rie	-2791
▁tut	-2792
deten	-2793
eller	-2794
llver	-2795
▁alte	-2796
▁Brief	-2797
▁genau	-2798
▁zukün	-2799
▁Stimme	-2800
verständ	-2801
▁Auftrag	-2802
▁September	-2803
▁veröffent	-2804
▁Ministerpräsi	-2805
bel	-2806
hop	-2807
entw	-2808
inar	-2809
▁Ist	-2810
▁Les	-2811
▁pos	-2812
▁2017	-2813
▁Beim	-2814
bürger	-2815
schein	-2816
▁neues	-2817
▁lieber	-2818
bliothek	-2819
▁Serbska	-2820
▁überhaupt	-2821
▁Landschaft	-2822
▁Traditionen	-2823
ock	-2824
zip	-2825
aufe	-2826
such	-2827
zeug	-2828
▁Rev	-2829
okrat	-2830
▁Arch	-2831
▁Gren	-2832
▁etwa	-2833
▁kurz	-2834
▁zeit	-2835
▁Bezug	-2836
▁Schon	-2837
▁stark	-2838
▁zeigt	-2839
▁geboren	-2840
▁evangelischen	-2841
“.	-2842
▁we	-2843
best	-2844
rech	-2845
▁Rep	-2846
▁feh	-2847
▁2016	-2848
▁Vert	-2849
▁Sorab	-2850
ährlich	-2851
▁Blumen	-2852
▁Lernen	-2853
▁liegen	-2854
▁Chemnitz	-2855
▁Mittelpunkt	-2856
▁entsprechend	-2857
2.	-2858
“,	-2859
arl	-2860
rik	-2861
▁Sm	-2862
eleg	-2863
grei	-2864
igte	-2865
pfer	-2866
seit	-2867
▁Okt	-2868
eidet	-2869
eitag	-2870
ichen	-2871
▁Drei	-2872
▁Hoff	-2873
▁abge	-2874
punkte	-2875
▁inner	-2876
▁jedem	-2877
leichen	-2878
▁Morgen	-2879
▁ausgeb	-2880
▁Energie	-2881
▁Kranken	-2882
▁Oktober	-2883
▁schönen	-2884
▁Bemühungen	-2885
▁Universität	-2886
▁katholischen	-2887
th	-2888
ief	-2889
lex	-2890
▁ch	-2891
eter	-2892
olkl	-2893
▁ind	-2894
erien	-2895
▁Baum	-2896
▁Brot	-2897
▁Wind	-2898
▁eure	-2899
gebung	-2900
▁Reich	-2901
▁posit	-2902
▁meinem	-2903
▁seines	-2904
bildungs	-2905
▁Zentrum	-2906
gerichtet	-2907
▁Kommunen	-2908
▁slawischen	-2909
▁Jugendliche	-2910
▁Vermittlung	-2911
▁organisiert	-2912
arm	-2913
aben	-2914
ates	-2915
▁Mai	-2916
▁kün	-2917
▁Abst	-2918
▁Doch	-2919
▁Tech	-2920
▁disk	-2921
▁sitz	-2922
ritten	-2923
▁Deine	-2924
▁aktiv	-2925
▁gerne	-2926
▁Bischof	-2927
▁Qualität	-2928
▁Af	-2929
▁br	-2930
bare	-2931
eile	-2932
haft	-2933
▁Kam	-2934
▁gep	-2935
▁wid	-2936
angeb	-2937
dreas	-2938
▁Frem	-2939
▁Wege	-2940
▁darum	-2941
▁ehren	-2942
▁sonst	-2943
▁dienen	-2944
▁Evangel	-2945
▁Direktor	-2946
▁verbesser	-2947
▁verbunden	-2948
▁weiterhin	-2949
geschrieben	-2950
▁sprachliche	-2951
kra	-2952
▁194	-2953
▁Sen	-2954
splan	-2955
▁zent	-2956
kinder	-2957
▁Autor	-2958
▁Bitte	-2959
▁Jeder	-2960
▁Preis	-2961
▁Teich	-2962
▁Vogel	-2963
▁geist	-2964
▁setzt	-2965
richtet	-2966
▁Abteil	-2967
▁zeigen	-2968
material	-2969
▁erleben	-2970
▁verloren	-2971
▁Gemeinsam	-2972
▁Instituts	-2973
▁Ergebnisse	-2974
▁Bedingungen	-2975
),	-2976
iff	-2977
ski	-2978
telt	-2979
▁Fäh	-2980
chmal	-2981
ändig	-2982
▁2015	-2983
▁LEAG	-2984
▁gesp	-2985
▁Wieder	-2986
▁Treffen	-2987
▁Bewohner	-2988
▁Freundin	-2989
▁besuchen	-2990
ej	-2991
gn	-2992
ard	-2993
nade	-2994
verw	-2995
▁Mać	-2996
▁Män	-2997
▁Zie	-2998
▁erf	-2999
altet	-3000
gegen	-3001
▁Holz	-3002
▁glau	-3003
derung	-3004
▁Beste	-3005
▁Fried	-3006
▁schle	-3007
▁verab	-3008
▁Lieder	-3009
▁Abgeordne	-3010
▁Millionen	-3011
▁erarbeitet	-3012
▁verantwort	-3013
yp	-3014
ian	-3015
▁16	-3016
▁Pu	-3017
▁kü	-3018
asch	-3019
elig	-3020
raus	-3021
rotz	-3022
sied	-3023
sätz	-3024
▁Ant	-3025
▁See	-3026
▁Uhr	-3027
▁jem	-3028
▁ält	-3029
halte	-3030
▁Aust	-3031
▁Eure	-3032
▁euer	-3033
▁hoch	-3034
ochter	-3035
ändert	-3036
▁Licht	-3037
▁Warum	-3038
▁musst	-3039
▁Rechte	-3040
▁großes	-3041
▁worden	-3042
▁Gelegen	-3043
▁Satzung	-3044
▁Verkehr	-3045
▁Johannes	-3046
▁Schülern	-3047
▁finanzie	-3048
▁schaffen	-3049
▁kommenden	-3050
▁vorbereitet	-3051
▁Deutschlands	-3052
-,	-3053
law	-3054
▁Mü	-3055
▁te	-3056
▁Bru	-3057
▁Pan	-3058
▁gek	-3059
▁wes	-3060
llung	-3061
mlich	-3062
ätzen	-3063
▁Schn	-3064
förder	-3065
uchten	-3066
wenden	-3067
▁Stück	-3068
▁lesen	-3069
schnitt	-3070
▁Maćica	-3071
▁wirken	-3072
struktur	-3073
▁Prozess	-3074
▁Großmutter	-3075
▁geschrieben	-3076
▁Regionalverband	-3077
eun	-3078
ies	-3079
▁13	-3080
aler	-3081
fält	-3082
nete	-3083
▁Fla	-3084
▁Jur	-3085
ktion	-3086
ritte	-3087
▁Text	-3088
▁mach	-3089
ftigen	-3090
öffnet	-3091
▁Metho	-3092
bereich	-3093
▁Straße	-3094
▁Voraus	-3095
▁deinem	-3096
▁diskut	-3097
▁kommun	-3098
▁musste	-3099
verbände	-3100
zeichnet	-3101
▁Darüber	-3102
▁Ländern	-3103
▁Straßen	-3104
▁bewusst	-3105
▁Leiterin	-3106
▁Sachsens	-3107
▁vielleicht	-3108
▁Wirtschafts	-3109
zü	-3110
▁c	-3111
chn	-3112
ine	-3113
▁14	-3114
▁kn	-3115
iete	-3116
▁aut	-3117
kshop	-3118
markt	-3119
teilt	-3120
▁Stär	-3121
▁acht	-3122
▁belie	-3123
bezogen	-3124
▁Schwar	-3125
▁Stunde	-3126
▁sieben	-3127
▁wohnen	-3128
gänglich	-3129
▁treffen	-3130
▁Tourismus	-3131
▁Tradition	-3132
▁eingeladen	-3133
▁kulturelle	-3134
▁zweisprachige	-3135
ee	-3136
gl	-3137
ebel	-3138
kung	-3139
riff	-3140
▁Grü	-3141
▁Rom	-3142
▁nöt	-3143
itter	-3144
wesen	-3145
▁2014	-3146
▁herr	-3147
▁Chanc	-3148
▁Krieg	-3149
▁Weihn	-3150
▁arbei	-3151
▁Kooper	-3152
▁früher	-3153
▁Nutzung	-3154
▁Regionen	-3155
▁entstanden	-3156
▁vorgestellt	-3157
low	-3158
pft	-3159
rah	-3160
▁Ad	-3161
gert	-3162
nach	-3163
ress	-3164
utet	-3165
äume	-3166
ekten	-3167
kteur	-3168
▁Inst	-3169
▁zwar	-3170
▁Folkl	-3171
▁Kolle	-3172
möglich	-3173
tworten	-3174
▁deiner	-3175
▁zentra	-3176
▁Dörfern	-3177
▁erfüllt	-3178
wendungen	-3179
▁erforder	-3180
▁erreichen	-3181
▁Sorabistik	-3182
▁Organisation	-3183
fs	-3184
pe	-3185
reig	-3186
▁Bas	-3187
▁Fol	-3188
▁Nun	-3189
▁Idee	-3190
▁Schm	-3191
▁Wert	-3192
reiter	-3193
▁Ereig	-3194
▁Sache	-3195
▁benöt	-3196
bendorf	-3197
mittelt	-3198
▁fertig	-3199
ierungen	-3200
▁Stunden	-3201
▁Künstler	-3202
▁Vorschlag	-3203
▁angeboten	-3204
▁Kandidaten	-3205
▁Oberschule	-3206
▁Entscheidungen	-3207
▁Bundesregierung	-3208
PD	-3209
▁§	-3210
ame	-3211
krä	-3212
wal	-3213
ädt	-3214
akte	-3215
aust	-3216
qual	-3217
rück	-3218
▁000	-3219
▁Mes	-3220
▁Sem	-3221
artet	-3222
oster	-3223
ringt	-3224
seite	-3225
▁trin	-3226
kaufen	-3227
▁Daten	-3228
▁Franz	-3229
▁Klima	-3230
▁Nebel	-3231
▁Texte	-3232
▁würden	-3233
▁Klassen	-3234
▁Tochter	-3235
▁könnten	-3236
▁Beratung	-3237
▁deutscher	-3238
▁Vorschläge	-3239
▁Wendenkönig	-3240
▁entsprechende	-3241
St	-3242
ehe	-3243
ide	-3244
▁el	-3245
andt	-3246
iste	-3247
kter	-3248
merk	-3249
▁202	-3250
räume	-3251
▁Prof	-3252
▁schl	-3253
ausend	-3254
gement	-3255
ielten	-3256
leitet	-3257
▁Erleb	-3258
▁Modell	-3259
▁Volkst	-3260
▁freuen	-3261
arlament	-3262
istische	-3263
sprachen	-3264
wesenden	-3265
▁Ausland	-3266
▁Freitag	-3267
▁weiterer	-3268
▁Vergangen	-3269
▁genannten	-3270
▁unterwegs	-3271
▁Sicherheit	-3272
▁bisherigen	-3273
▁informiert	-3274
▁politische	-3275
lro	-3276
wür	-3277
▁At	-3278
▁Kü	-3279
▁On	-3280
▁Än	-3281
frei	-3282
funk	-3283
zieh	-3284
▁Pil	-3285
▁end	-3286
enten	-3287
▁erle	-3288
▁gehe	-3289
▁sagt	-3290
ennung	-3291
lassen	-3292
▁Sinne	-3293
▁Ziele	-3294
▁genug	-3295
▁wider	-3296
gegeben	-3297
▁Alltag	-3298
▁Herbst	-3299
▁Seiten	-3300
▁ebenso	-3301
▁ziehen	-3302
▁Kloster	-3303
▁hundert	-3304
▁stellte	-3305
▁tschech	-3306
indestens	-3307
▁Maßnahme	-3308
▁Geburtstag	-3309
rax	-3310
riv	-3311
zif	-3312
ickt	-3313
ängt	-3314
▁jen	-3315
lafen	-3316
ochen	-3317
statt	-3318
▁eher	-3319
▁grün	-3320
▁nahe	-3321
▁verm	-3322
▁wert	-3323
gliche	-3324
trauen	-3325
▁Deleg	-3326
▁schul	-3327
veranst	-3328
▁Bedarf	-3329
▁Danach	-3330
▁Verlag	-3331
▁Zimmer	-3332
▁bemüht	-3333
handlung	-3334
▁Entwick	-3335
▁erreicht	-3336
▁heutigen	-3337
▁Ausschuss	-3338
▁nationale	-3339
▁wiederhol	-3340
▁ausreichen	-3341
▁informieren	-3342
sa	-3343
eta	-3344
man	-3345
usw	-3346
nern	-3347
▁Flä	-3348
▁Kur	-3349
▁sor	-3350
▁usw	-3351
wuchs	-3352
▁2019	-3353
▁Enga	-3354
▁Führ	-3355
▁Tier	-3356
▁begr	-3357
▁frem	-3358
▁kaum	-3359
schatz	-3360
▁Gnade	-3361
▁getan	-3362
▁hilft	-3363
▁ihres	-3364
bringen	-3365
▁spielt	-3366
▁zweite	-3367
▁Fußball	-3368
▁Schritt	-3369
▁ziemlich	-3370
▁Engagement	-3371
▁Bestandteil	-3372
▁kulturellen	-3373
▁sprachlichen	-3374
▁Mö	-3375
▁Th	-3376
▁Sal	-3377
ative	-3378
▁Erst	-3379
▁Post	-3380
▁Witt	-3381
▁samm	-3382
▁verg	-3383
▁zuge	-3384
lieben	-3385
▁Fluss	-3386
▁Titel	-3387
▁alter	-3388
▁Bruder	-3389
▁Dörfer	-3390
▁Kindes	-3391
▁Paulus	-3392
▁Welche	-3393
▁schöne	-3394
programm	-3395
▁Landrat	-3396
▁Prüfung	-3397
▁schrift	-3398
▁stärker	-3399
▁Abschluss	-3400
fon	-3401
▁hö	-3402
▁195	-3403
▁Eis	-3404
▁Min	-3405
hilfe	-3406
rifft	-3407
albitz	-3408
reisen	-3409
▁Beide	-3410
▁Brauch	-3411
▁anders	-3412
▁berück	-3413
▁Andreas	-3414
▁Bräuche	-3415
▁beraten	-3416
▁Hoffnung	-3417
▁ehrenamt	-3418
▁Wittichen	-3419
▁schreiben	-3420
▁Gelegenheit	-3421
mt	-3422
hre	-3423
nal	-3424
uar	-3425
▁Kä	-3426
▁Lö	-3427
falt	-3428
▁Erz	-3429
raxis	-3430
örden	-3431
▁2020	-3432
▁Mahl	-3433
elwitz	-3434
spiele	-3435
wegung	-3436
▁Umgang	-3437
radition	-3438
▁pädagog	-3439
schriften	-3440
▁Dokument	-3441
▁Lehrerin	-3442
▁verlassen	-3443
entwicklung	-3444
▁eigentlich	-3445
▁Gottesdienst	-3446
▁Angelegenheit	-3447
SV	-3448
uh	-3449
201	-3450
ble	-3451
mpf	-3452
roh	-3453
▁Ak	-3454
fort	-3455
hoch	-3456
digen	-3457
eider	-3458
zentr	-3459
▁Bahn	-3460
▁krit	-3461
▁Dinge	-3462
▁Reihe	-3463
▁Wegen	-3464
fordert	-3465
▁Bauern	-3466
▁Richter	-3467
ständigen	-3468
▁Kontakte	-3469
▁Workshop	-3470
mitglieder	-3471
▁tradition	-3472
▁regionalen	-3473
▁erfolgreich	-3474
▁gesellschaft	-3475
dr	-3476
äne	-3477
ört	-3478
▁2.	-3479
▁50	-3480
▁Lu	-3481
▁Ra	-3482
eise	-3483
▁Bro	-3484
▁Fot	-3485
▁Krä	-3486
gebau	-3487
▁Fern	-3488
▁Park	-3489
▁hält	-3490
▁pass	-3491
kirche	-3492
spruch	-3493
▁Worte	-3494
▁staat	-3495
hältnis	-3496
▁Einige	-3497
▁Grünen	-3498
▁Termin	-3499
▁Urlaub	-3500
▁größte	-3501
▁lebend	-3502
▁Ralbitz	-3503
▁schönes	-3504
▁Gedanken	-3505
▁verstehen	-3506
▁Tschechien	-3507
▁ehemaligen	-3508
▁geschaffen	-3509
▁mindestens	-3510
aß	-3511
fre	-3512
lieb	-3513
äher	-3514
▁Hal	-3515
▁Jün	-3516
▁Ord	-3517
▁Bist	-3518
▁Seen	-3519
▁kümm	-3520
gelegt	-3521
indest	-3522
▁Inter	-3523
▁Schne	-3524
heaters	-3525
▁Berufs	-3526
▁Januar	-3527
▁gesund	-3528
▁intens	-3529
gebracht	-3530
▁Ergebnis	-3531
▁Folklore	-3532
▁Personal	-3533
▁vielfält	-3534
▁Anwendung	-3535
▁Beschluss	-3536
▁vorstellen	-3537
▁Jahrhunderts	-3538
▁»	-3539
one	-3540
▁Le	-3541
▁Ne	-3542
▁Qu	-3543
ente	-3544
itaj	-3545
ösen	-3546
▁Imm	-3547
▁Woh	-3548
▁fei	-3549
▁kom	-3550
▁Chor	-3551
▁Dass	-3552
▁Prot	-3553
artner	-3554
▁Druck	-3555
▁Laufe	-3556
▁Witaj	-3557
▁einzu	-3558
vorsitz	-3559
▁Wetter	-3560
▁anderer	-3561
▁solchen	-3562
▁Vereinen	-3563
▁Untersuch	-3564
▁aktuellen	-3565
▁Gymnasiums	-3566
▁Verbindung	-3567
▁Landkreises	-3568
▁beschäftigt	-3569
▁beschäftigen	-3570
ßt	-3571
Pro	-3572
fter	-3573
▁Zeu	-3574
▁füh	-3575
▁zuf	-3576
fahrt	-3577
▁Nord	-3578
▁Rede	-3579
▁Sorb	-3580
ahrung	-3581
nungen	-3582
▁Mitte	-3583
▁Refer	-3584
▁inter	-3585
▁nimmt	-3586
politik	-3587
▁Körper	-3588
▁Leitung	-3589
▁Serbski	-3590
▁fordert	-3591
▁fördert	-3592
▁gewählt	-3593
▁handelt	-3594
▁wünsche	-3595
sichtlich	-3596
▁aktuelle	-3597
▁Industrie	-3598
▁Schleifer	-3599
▁Schuljahr	-3600
▁vergessen	-3601
▁Nebelschütz	-3602
▁Kindergärten	-3603
ieg	-3604
ragt	-3605
usch	-3606
▁198	-3607
▁Tod	-3608
eilen	-3609
stern	-3610
▁Meer	-3611
▁fach	-3612
langen	-3613
lanzen	-3614
linien	-3615
nahmen	-3616
semble	-3617
▁Junge	-3618
▁guter	-3619
▁Smoler	-3620
▁Tracht	-3621
▁Worten	-3622
▁letzte	-3623
▁Gremien	-3624
▁Zeichen	-3625
▁pflegen	-3626
formation	-3627
förderung	-3628
▁gegenseit	-3629
▁verwendet	-3630
▁Wortschatz	-3631
enk	-3632
met	-3633
rar	-3634
ähn	-3635
chem	-3636
▁Ang	-3637
▁Büh	-3638
▁Don	-3639
▁Fen	-3640
▁Tra	-3641
bauen	-3642
ender	-3643
frist	-3644
▁Tanz	-3645
▁Wurz	-3646
▁bald	-3647
reiben	-3648
▁Exper	-3649
▁Werke	-3650
▁sollt	-3651
▁Beginn	-3652
▁Gegend	-3653
▁bekomm	-3654
▁stattf	-3655
▁wesent	-3656
▁November	-3657
▁Umgebung	-3658
▁umfassen	-3659
kommission	-3660
verwaltung	-3661
▁zugänglich	-3662
▁Europäischen	-3663
aub	-3664
ula	-3665
urf	-3666
▁Sk	-3667
cker	-3668
▁Bus	-3669
▁alt	-3670
auern	-3671
werke	-3672
zieht	-3673
ziell	-3674
▁Blut	-3675
▁Krit	-3676
▁Weil	-3677
▁beob	-3678
▁früh	-3679
▁slaw	-3680
digung	-3681
glicht	-3682
region	-3683
▁Einen	-3684
▁Zusch	-3685
▁darin	-3686
▁zerst	-3687
schließ	-3688
▁Beteil	-3689
▁begann	-3690
▁bestät	-3691
▁leicht	-3692
▁Wichtig	-3693
äckelwitz	-3694
▁Spreewald	-3695
▁ermöglicht	-3696
UE	-3697
rt	-3698
ite	-3699
pen	-3700
zeh	-3701
▁Li	-3702
ette	-3703
kurs	-3704
lekt	-3705
weil	-3706
▁AfD	-3707
▁Hof	-3708
jekte	-3709
lernt	-3710
lrose	-3711
ohlen	-3712
▁Arzt	-3713
▁Zitt	-3714
abhäng	-3715
schles	-3716
straße	-3717
▁Alles	-3718
▁Glück	-3719
▁Kohle	-3720
▁Tagen	-3721
▁älter	-3722
merksam	-3723
wiegend	-3724
▁Dialog	-3725
▁Hinter	-3726
▁danach	-3727
▁jemand	-3728
▁Bereits	-3729
▁Statnik	-3730
▁bringen	-3731
▁täglich	-3732
▁umgesetzt	-3733
▁Oberbürger	-3734
▁Räckelwitz	-3735
▁unterstrich	-3736
▁abgeschlossen	-3737
ymb	-3738
äte	-3739
üsse	-3740
▁Far	-3741
▁Mir	-3742
offen	-3743
volle	-3744
▁Leit	-3745
▁gebe	-3746
▁jede	-3747
▁plan	-3748
fragen	-3749
retung	-3750
▁herum	-3751
▁trägt	-3752
▁Gesamt	-3753
▁Städte	-3754
▁Wander	-3755
▁gelten	-3756
▁inhalt	-3757
▁mutter	-3758
▁tragen	-3759
sprechen	-3760
▁Geschen	-3761
▁während	-3762
▁geworden	-3763
▁Sonnabend	-3764
llvertreten	-3765
▁vorgesehen	-3766
▁Dachverband	-3767
▁Mitgliedern	-3768
▁Sorbengesetz	-3769
▁muttersprach	-3770
▁veröffentlicht	-3771
sra	-3772
utt	-3773
▁Ei	-3774
gien	-3775
isse	-3776
ivid	-3777
will	-3778
▁FUE	-3779
▁Pre	-3780
chtet	-3781
icken	-3782
raten	-3783
uchte	-3784
▁Nive	-3785
▁beit	-3786
▁lern	-3787
▁stud	-3788
▁verd	-3789
kretär	-3790
▁Basis	-3791
▁Hände	-3792
▁Rates	-3793
▁Weltk	-3794
▁daher	-3795
▁länger	-3796
▁Fenster	-3797
▁stärken	-3798
▁weniger	-3799
▁Arbeiten	-3800
▁gelungen	-3801
▁Bundestag	-3802
▁Freundinnen	-3803
▁stellvertreten	-3804
In	-3805
pa	-3806
Vor	-3807
aly	-3808
iver	-3809
loss	-3810
nehm	-3811
tler	-3812
ächt	-3813
▁196	-3814
▁rei	-3815
▁ähn	-3816
kraft	-3817
sport	-3818
▁Wolf	-3819
Verlag	-3820
spiels	-3821
▁Milch	-3822
fassung	-3823
gericht	-3824
▁Anzahl	-3825
▁Länder	-3826
▁Männer	-3827
▁gesetz	-3828
aufgaben	-3829
derungen	-3830
▁Denkmal	-3831
▁Meinung	-3832
▁Polizei	-3833
▁Vertrag	-3834
▁ständig	-3835
▁wollten	-3836
zeichnung	-3837
▁Parteien	-3838
▁Rundfunk	-3839
▁bedeutet	-3840
▁gefallen	-3841
▁innerhalb	-3842
▁Initiative	-3843
▁Vielleicht	-3844
▁verabschie	-3845
▁Einrichtung	-3846
▁entscheidet	-3847
▁Kommunikation	-3848
▁Niedersorbisch	-3849
▁Geschäftsführer	-3850
mut	-3851
ril	-3852
▁de	-3853
arte	-3854
lang	-3855
sein	-3856
▁100	-3857
▁Alt	-3858
▁Ben	-3859
▁DDR	-3860
▁Mot	-3861
▁Pet	-3862
folgt	-3863
▁2013	-3864
▁Seil	-3865
▁Wein	-3866
▁nahm	-3867
▁star	-3868
▁stet	-3869
aktion	-3870
führen	-3871
schung	-3872
▁Wende	-3873
▁einst	-3874
▁hätte	-3875
▁liebe	-3876
▁wirkt	-3877
ichtete	-3878
▁Gesund	-3879
▁Jungen	-3880
▁schwar	-3881
▁verste	-3882
▁erinner	-3883
▁gerecht	-3884
▁Ausgaben	-3885
▁Gründung	-3886
▁Trachten	-3887
▁Zwischen	-3888
▁erkennen	-3889
▁Erwachsen	-3890
▁Forschung	-3891
▁Nachwuchs	-3892
▁getroffen	-3893
▁vermittelt	-3894
▁Materialien	-3895
▁Osterreiter	-3896
▁brandenburg	-3897
▁Stiftungsrates	-3898
▁Geschäftsstelle	-3899
▁Wissenschaftler	-3900
mo	-3901
sor	-3902
▁Abs	-3903
▁Och	-3904
▁kur	-3905
etten	-3906
scher	-3907
▁Ball	-3908
rieden	-3909
rochen	-3910
▁April	-3911
▁Pferd	-3912
▁auszu	-3913
▁essen	-3914
▁gelin	-3915
nischen	-3916
steller	-3917
▁bereit	-3918
▁erster	-3919
▁verkün	-3920
▁Mahling	-3921
▁umfasst	-3922
▁Heiligen	-3923
▁Vielfalt	-3924
▁entstand	-3925
▁gestellt	-3926
▁untersch	-3927
landschaft	-3928
▁Arbeitspl	-3929
▁grundsätz	-3930
▁Kenntnisse	-3931
▁entschieden	-3932
▁unterhalten	-3933
▁europäischen	-3934
ja	-3935
gem	-3936
onn	-3937
tex	-3938
ähe	-3939
öst	-3940
läub	-3941
ücht	-3942
▁193	-3943
▁Kön	-3944
▁Mün	-3945
▁Roh	-3946
▁SPD	-3947
▁Süd	-3948
frage	-3949
rägen	-3950
▁Bege	-3951
▁Kann	-3952
▁Orts	-3953
▁gere	-3954
Wenden	-3955
▁Macht	-3956
▁Regen	-3957
▁Schön	-3958
▁ergän	-3959
agement	-3960
greifen	-3961
sichtigt	-3962
sprachig	-3963
▁Wurzeln	-3964
▁welchen	-3965
▁Gebrauch	-3966
▁künstler	-3967
▁Parlament	-3968
▁ehemalige	-3969
▁wichtiger	-3970
▁Anwesenden	-3971
▁verantwortlich	-3972
ds	-3973
bew	-3974
hst	-3975
innt	-3976
iode	-3977
line	-3978
llig	-3979
rone	-3980
▁Feh	-3981
eißen	-3982
iment	-3983
▁Ehre	-3984
▁Verl	-3985
▁reag	-3986
wirken	-3987
ählten	-3988
▁Papst	-3989
▁Sicht	-3990
▁bauen	-3991
▁exist	-3992
▁warum	-3993
alition	-3994
eistern	-3995
igungen	-3996
▁Kultus	-3997
▁Tasche	-3998
▁Zeiten	-3999
▁ausgew	-4000
▁bildet	-4001
▁gezeigt	-4002
▁wachsen	-4003
▁welchem	-4004
▁überzeu	-4005
▁Bereiche	-4006
▁Probleme	-4007
▁bedeuten	-4008
▁jährlich	-4009
lichkeiten	-4010
▁Projekten	-4011
▁Wochenende	-4012
erechtigkeit	-4013
▁Fähigkeiten	-4014
ieh	-4015
ieß	-4016
val	-4017
zut	-4018
öpf	-4019
▁To	-4020
dass	-4021
fert	-4022
reut	-4023
▁19.	-4024
▁Jul	-4025
▁Tom	-4026
▁pol	-4027
▁wei	-4028
elten	-4029
hemat	-4030
stoff	-4031
ummer	-4032
ängst	-4033
ösung	-4034
▁Dein	-4035
▁Krei	-4036
▁Name	-4037
▁gepf	-4038
▁kont	-4039
▁tour	-4040
▁Digit	-4041
▁Jubil	-4042
▁beruf	-4043
▁freue	-4044
▁unver	-4045
▁wirst	-4046
vertrag	-4047
▁Chance	-4048
▁sodass	-4049
▁Flasche	-4050
▁Deutsche	-4051
▁gewinnen	-4052
▁Panschwitz	-4053
▁ermöglichen	-4054
möglichkeiten	-4055
▁unterrichtet	-4056
bi	-4057
beh	-4058
ums	-4059
öhn	-4060
▁lo	-4061
▁ru	-4062
adem	-4063
ahre	-4064
erei	-4065
feld	-4066
ingt	-4067
reit	-4068
vert	-4069
ährt	-4070
▁Ern	-4071
▁zer	-4072
durch	-4073
itzer	-4074
ängen	-4075
▁Burg	-4076
▁Empf	-4077
▁Lage	-4078
▁Prag	-4079
▁Slaw	-4080
▁vorb	-4081
atoren	-4082
echsel	-4083
gebaut	-4084
rocken	-4085
sozial	-4086
▁Groll	-4087
▁schen	-4088
isieren	-4089
leistet	-4090
ziehung	-4091
▁Firmen	-4092
▁Formen	-4093
▁Inhalt	-4094
▁Invest	-4095
▁Sachen	-4096
▁zählen	-4097
▁Technik	-4098
▁Kompeten	-4099
▁Nachbarn	-4100
▁eröffnet	-4101
▁zunehmen	-4102
▁Insgesamt	-4103
▁Vorbereit	-4104
▁beteiligt	-4105
▁wichtigen	-4106
▁Gesundheit	-4107
▁Trebendorf	-4108
▁eingesetzt	-4109
▁geschlossen	-4110
▁Generationen	-4111
▁Vorbereitung	-4112
▁Gerechtigkeit	-4113
ffi	-4114
fin	-4115
muß	-4116
rop	-4117
▁Gü	-4118
bles	-4119
ebru	-4120
ramm	-4121
wies	-4122
▁Dez	-4123
▁fal	-4124
auert	-4125
setzt	-4126
unnen	-4127
▁Auss	-4128
▁Bäck	-4129
▁Schl	-4130
▁verz	-4131
ebruar	-4132
▁Ander	-4133
▁Boden	-4134
▁Heide	-4135
▁Siehe	-4136
▁angew	-4137
▁prakt	-4138
erinnen	-4139
nerstag	-4140
▁bringt	-4141
▁christ	-4142
▁direkt	-4143
▁erhält	-4144
▁lieben	-4145
▁obwohl	-4146
▁themat	-4147
▁Februar	-4148
▁Stellen	-4149
▁Stimmen	-4150
▁Weitere	-4151
▁Zeitung	-4152
▁Behörden	-4153
▁Grollmuß	-4154
▁mehreren	-4155
▁Abteilung	-4156
▁Staatsanw	-4157
▁vermitteln	-4158
▁Kooperation	-4159
▁aufgenommen	-4160
▁Durchführung	-4161
▁Stiftungsrat	-4162
3.	-4163
yr	-4164
org	-4165
▁Do	-4166
eilt	-4167
elte	-4168
imal	-4169
käuf	-4170
lass	-4171
onen	-4172
otto	-4173
valu	-4174
ärkt	-4175
▁San	-4176
▁Web	-4177
▁pre	-4178
alien	-4179
trakt	-4180
äuser	-4181
▁Isra	-4182
werben	-4183
▁Monat	-4184
▁kamen	-4185
haltung	-4186
schauen	-4187
sembles	-4188
▁Mittag	-4189
▁singen	-4190
▁verank	-4191
▁willst	-4192
▁Derzeit	-4193
▁Inhalte	-4194
▁Studien	-4195
▁erzählt	-4196
▁individ	-4197
zustellen	-4198
▁Handwerk	-4199
▁außerdem	-4200
▁weiteres	-4201
ausschusses	-4202
▁Grundlagen	-4203
▁einbezogen	-4204
wissenschaft	-4205
▁Wittichenau	-4206
▁beschrieben	-4207
▁Vergangenheit	-4208
▁Staatsregierung	-4209
ki	-4210
no	-4211
sd	-4212
ans	-4213
▁EU	-4214
▁gl	-4215
iken	-4216
itze	-4217
rüft	-4218
linge	-4219
tritt	-4220
unsch	-4221
▁2018	-4222
▁Feld	-4223
▁frag	-4224
▁zwöl	-4225
andels	-4226
teilen	-4227
zimmer	-4228
▁Tiere	-4229
▁reich	-4230
ächlich	-4231
▁Umfang	-4232
roffenen	-4233
wendungs	-4234
zunehmen	-4235
▁Konzert	-4236
▁endlich	-4237
▁Interess	-4238
▁manchmal	-4239
▁sprachen	-4240
frastruktur	-4241
▁entspricht	-4242
▁gearbeitet	-4243
▁sorbisches	-4244
▁Schulverein	-4245
aw	-4246
fä	-4247
sy	-4248
äs	-4249
ika	-4250
▁40	-4251
iker	-4252
piel	-4253
▁Hel	-4254
▁Jak	-4255
▁Med	-4256
▁Nie	-4257
▁Res	-4258
dlich	-4259
hören	-4260
reibt	-4261
wegen	-4262
ymbol	-4263
▁Bett	-4264
▁Lied	-4265
▁Nähe	-4266
▁hört	-4267
▁neun	-4268
▁offi	-4269
▁sehe	-4270
▁zeig	-4271
eitens	-4272
formen	-4273
ograph	-4274
ordnet	-4275
▁Fremd	-4276
▁hinzu	-4277
▁kompl	-4278
konzept	-4279
▁Erwerb	-4280
▁ordent	-4281
▁werdet	-4282
immungen	-4283
▁Einsatz	-4284
▁berufen	-4285
▁positiv	-4286
ziehungen	-4287
▁Dezember	-4288
▁Internat	-4289
▁Jubiläum	-4290
▁Lehrbuch	-4291
▁Perspekt	-4292
▁Austausch	-4293
▁Bewahrung	-4294
▁folgenden	-4295
gesellschaft	-4296
▁Lehrerinnen	-4297
▁Gleichzeitig	-4298
▁Landwirtschaft	-4299
▁Herausforderung	-4300
NE	-4301
ca	-4302
▁u	-4303
app	-4304
gut	-4305
tur	-4306
zuf	-4307
ache	-4308
aren	-4309
frau	-4310
ings	-4311
netz	-4312
urop	-4313
▁Get	-4314
ießen	-4315
immen	-4316
▁rech	-4317
lüssel	-4318
▁Firma	-4319
▁Peter	-4320
▁dient	-4321
▁reden	-4322
▁weder	-4323
lichung	-4324
▁Brüder	-4325
▁Darauf	-4326
▁Messer	-4327
▁beherr	-4328
▁voller	-4329
▁zuerst	-4330
▁Museums	-4331
▁besucht	-4332
▁einzige	-4333
▁geplant	-4334
▁kleines	-4335
▁Groschen	-4336
▁Pflanzen	-4337
▁Koalition	-4338
▁Touristen	-4339
▁allgemein	-4340
▁begleitet	-4341
▁beitragen	-4342
▁vorliegen	-4343
▁Generation	-4344
▁Inzwischen	-4345
▁Informations	-4346
En	-4347
üre	-4348
▁Sü	-4349
oßen	-4350
uell	-4351
▁Now	-4352
▁Sam	-4353
▁Tem	-4354
▁dur	-4355
▁jün	-4356
▁kür	-4357
kirch	-4358
ächer	-4359
▁Kaff	-4360
▁Kreu	-4361
▁Mart	-4362
▁Ruhe	-4363
▁Saal	-4364
▁prof	-4365
▁rein	-4366
▁schm	-4367
ammelt	-4368
messen	-4369
▁Motto	-4370
▁Reise	-4371
▁Seele	-4372
▁Union	-4373
▁erleb	-4374
▁erneu	-4375
▁kennt	-4376
tretern	-4377
▁Immers	-4378
▁System	-4379
▁führte	-4380
▁wählen	-4381
kenntnis	-4382
▁Städten	-4383
▁erklärt	-4384
▁kleiner	-4385
▁Betriebs	-4386
▁Freiheit	-4387
▁Hochzeit	-4388
▁Kreistag	-4389
▁Landtags	-4390
▁Verkehrs	-4391
▁bewahren	-4392
▁einzelne	-4393
▁gesamten	-4394
▁richtige	-4395
▁verwenden	-4396
spielsweise	-4397
▁Abstimmung	-4398
▁Bibliothek	-4399
▁Leistungen	-4400
▁zahlreiche	-4401
▁Zeitschrift	-4402
een	-4403
▁3.	-4404
bahn	-4405
deln	-4406
kund	-4407
stre	-4408
tegr	-4409
viel	-4410
▁Box	-4411
▁Erd	-4412
▁Hil	-4413
▁Kne	-4414
▁näm	-4415
anzig	-4416
uckau	-4417
undes	-4418
zielt	-4419
▁Vier	-4420
▁spät	-4421
Gruppe	-4422
recher	-4423
▁Kamer	-4424
▁Sonne	-4425
▁nötig	-4426
▁suche	-4427
ßnahmen	-4428
▁Ebenso	-4429
▁Hauses	-4430
▁Umsied	-4431
▁gebaut	-4432
▁unters	-4433
▁gefällt	-4434
▁nämlich	-4435
▁verschw	-4436
auftragte	-4437
▁Beschäft	-4438
▁Wahrheit	-4439
▁dortigen	-4440
▁lebendig	-4441
▁unabhäng	-4442
gestellten	-4443
▁Bereichen	-4444
▁Verbesser	-4445
▁bestimmte	-4446
▁erscheint	-4447
▁verhinder	-4448
▁zufrieden	-4449
einrichtung	-4450
▁sicherlich	-4451
▁zusätzliche	-4452
▁Entwicklungs	-4453
▁diesjährigen	-4454
▁unterschiedlich	-4455
do	-4456
ahm	-4457
bin	-4458
ejm	-4459
ßig	-4460
pfel	-4461
ögel	-4462
ögen	-4463
▁20.	-4464
▁App	-4465
▁Cha	-4466
▁per	-4467
chnik	-4468
ossen	-4469
▁Jesu	-4470
▁Wohl	-4471
▁erhö	-4472
▁sejm	-4473
▁umge	-4474
▁unbe	-4475
Nieder	-4476
armher	-4477
ativen	-4478
kultur	-4479
pflich	-4480
stände	-4481
üchern	-4482
▁Krank	-4483
▁Krone	-4484
▁Schau	-4485
▁Schie	-4486
▁Tante	-4487
▁Wagen	-4488
▁gutes	-4489
▁haupt	-4490
▁sogen	-4491
pädagog	-4492
▁Bergen	-4493
▁Erwart	-4494
▁Ostern	-4495
▁Persön	-4496
▁Sonder	-4497
▁Willen	-4498
▁Zauber	-4499
▁europä	-4500
▁warten	-4501
▁wenden	-4502
projekte	-4503
▁Europas	-4504
▁Jahrzeh	-4505
▁Seminar	-4506
▁gesamte	-4507
▁mittler	-4508
▁seitens	-4509
arbeitung	-4510
erkennung	-4511
▁Arbeitsk	-4512
▁Friedhof	-4513
▁Geschenk	-4514
▁Kleidung	-4515
▁Mühlrose	-4516
▁folgende	-4517
▁herzlich	-4518
schreibung	-4519
▁teilweise	-4520
▁Donnerstag	-4521
▁erläuterte	-4522
▁Information	-4523
▁ausreichend	-4524
▁beispielsweise	-4525
ed	-4526
ikt	-4527
ook	-4528
sid	-4529
afft	-4530
delt	-4531
eige	-4532
klei	-4533
▁Hon	-4534
▁Kri	-4535
▁Lut	-4536
▁bun	-4537
▁dra	-4538
▁lin	-4539
▁zun	-4540
atten	-4541
baren	-4542
resse	-4543
vater	-4544
▁Juli	-4545
▁Prem	-4546
▁Seid	-4547
▁dank	-4548
▁dien	-4549
▁fröh	-4550
▁vern	-4551
holfen	-4552
laufen	-4553
länder	-4554
schmer	-4555
▁Super	-4556
▁spiel	-4557
▁Fehler	-4558
▁feiern	-4559
▁wunder	-4560
▁Grenzen	-4561
▁Nochten	-4562
▁gelernt	-4563
▁größten	-4564
▁irgendw	-4565
▁schauen	-4566
▁Seenland	-4567
▁bereitet	-4568
▁Schwester	-4569
▁Vertrauen	-4570
▁erläutert	-4571
▁Grundstück	-4572
▁besonderer	-4573
▁Schwerpunkt	-4574
▁Finanzierung	-4575
▁erforderlich	-4576
▁Kirchgemeinde	-4577
▁gewährleistet	-4578
▁verschiedener	-4579
▁berücksichtigt	-4580
▁Voraussetzungen	-4581
Die	-4582
Sch	-4583
kam	-4584
öse	-4585
▁12	-4586
▁at	-4587
▁ew	-4588
ager	-4589
obil	-4590
orre	-4591
tend	-4592
▁mon	-4593
achte	-4594
dacht	-4595
sdorf	-4596
▁Amts	-4597
▁Ganz	-4598
▁lebt	-4599
▁qual	-4600
▁tief	-4601
innung	-4602
kräfte	-4603
kteure	-4604
ournal	-4605
▁Liste	-4606
▁Zweck	-4607
▁danke	-4608
▁entde	-4609
▁hängt	-4610
▁näher	-4611
▁schau	-4612
▁schme	-4613
auspiel	-4614
entwick	-4615
▁Bilder	-4616
▁einger	-4617
▁erlebt	-4618
▁reicht	-4619
▁verein	-4620
▁werben	-4621
isierung	-4622
▁Beitrag	-4623
▁Fahrrad	-4624
▁Gestern	-4625
▁Studium	-4626
▁Ausdruck	-4627
▁Stärkung	-4628
▁gegangen	-4629
▁genommen	-4630
▁wünschen	-4631
sprachiger	-4632
▁zuständig	-4633
bedingungen	-4634
ministerium	-4635
▁Weißwasser	-4636
▁angenommen	-4637
▁bestimmten	-4638
▁grundlegen	-4639
19	-4640
flä	-4641
▁Fü	-4642
▁pl	-4643
▁ro	-4644
komp	-4645
rang	-4646
▁18.	-4647
▁Häl	-4648
▁Rie	-4649
▁Ruh	-4650
▁Wäh	-4651
fluss	-4652
ildet	-4653
namen	-4654
teile	-4655
unken	-4656
▁Kurz	-4657
▁bein	-4658
▁kenn	-4659
▁komp	-4660
Kuckau	-4661
bilden	-4662
ohnern	-4663
▁Angst	-4664
▁Karte	-4665
▁Laken	-4666
▁Wasch	-4667
▁hohen	-4668
▁produ	-4669
▁wohnt	-4670
▁zwölf	-4671
▁zählt	-4672
periode	-4673
teilung	-4674
▁Brosch	-4675
▁Damals	-4676
▁Papier	-4677
▁nahmen	-4678
▁sollst	-4679
ourismus	-4680
tagessen	-4681
▁Eingang	-4682
▁Instrum	-4683
Sorbische	-4684
schlesien	-4685
schreiben	-4686
▁Anspruch	-4687
▁Projekts	-4688
▁Republik	-4689
▁Veränder	-4690
▁begrüßen	-4691
▁gewonnen	-4692
▁konkrete	-4693
geschlagen	-4694
▁Erhaltung	-4695
▁Konferenz	-4696
▁erweitern	-4697
▁Jahrhunder	-4698
▁erschienen	-4699
▁öffentlich	-4700
▁Anerkennung	-4701
▁Erwartungen	-4702
▁Mittagessen	-4703
▁Volkstheater	-4704
▁selbstständig	-4705
▁internationalen	-4706
bür	-4707
nov	-4708
öte	-4709
▁Et	-4710
alog	-4711
üben	-4712
▁Hör	-4713
▁MDR	-4714
▁dam	-4715
gehör	-4716
inten	-4717
kreis	-4718
ässer	-4719
ühren	-4720
▁1990	-4721
▁Kate	-4722
▁Kita	-4723
▁höch	-4724
▁priv	-4725
graben	-4726
leiten	-4727
rakter	-4728
riffen	-4729
▁Bühne	-4730
▁Essen	-4731
▁Punkt	-4732
▁anges	-4733
▁techn	-4734
berecht	-4735
organis	-4736
rotzdem	-4737
senthal	-4738
züglich	-4739
▁Kathol	-4740
▁Praxis	-4741
▁achten	-4742
▁kaufen	-4743
▁sofort	-4744
▁vorher	-4745
festival	-4746
lässlich	-4747
usstsein	-4748
▁Begriff	-4749
▁Verkäuf	-4750
▁nächste	-4751
▁veranst	-4752
▁Bewegung	-4753
▁Publikum	-4754
▁bekannte	-4755
▁erwarten	-4756
▁vertritt	-4757
geschichte	-4758
▁Kraftwerk	-4759
▁gestalten	-4760
▁Forschungs	-4761
▁nationaler	-4762
gemeinschaft	-4763
▁Ausbildungs	-4764
▁überwiegend	-4765
▁Gemeinderats	-4766
▁Grundschulen	-4767
▁Dachverbandes	-4768
št	-4769
ada	-4770
kau	-4771
ris	-4772
ymp	-4773
▁ak	-4774
ahlt	-4775
ause	-4776
mach	-4777
ügen	-4778
▁Ach	-4779
▁Bud	-4780
▁Kil	-4781
▁Mat	-4782
▁Pat	-4783
▁dro	-4784
▁käm	-4785
▁lau	-4786
eiger	-4787
neten	-4788
ollen	-4789
ormal	-4790
stren	-4791
twoch	-4792
▁Ansp	-4793
▁Kern	-4794
▁Luft	-4795
▁Arten	-4796
▁Artik	-4797
▁Küche	-4798
▁betre	-4799
▁bevor	-4800
▁stets	-4801
▁Ferien	-4802
▁Kosten	-4803
▁Martin	-4804
▁Schnee	-4805
▁bitten	-4806
▁fanden	-4807
▁meines	-4808
▁Antwort	-4809
▁Ausgabe	-4810
▁München	-4811
▁Planung	-4812
▁Präsent	-4813
▁Zweiten	-4814
▁genannt	-4815
▁heutige	-4816
▁künftig	-4817
▁soziale	-4818
▁verwies	-4819
▁Beiträge	-4820
▁Herkunft	-4821
▁Vorschul	-4822
▁bisschen	-4823
▁konzentr	-4824
▁sozialen	-4825
▁unmittel	-4826
▁Charakter	-4827
▁Weihnacht	-4828
▁einsetzen	-4829
▁verpflich	-4830
▁Kommission	-4831
▁Nachmittag	-4832
▁verbessert	-4833
▁Zuwendungen	-4834
▁Untersuchung	-4835
▁Vorsitzender	-4836
▁festgestellt	-4837
▁gleichzeitig	-4838
▁Oberlausitzer	-4839
50	-4840
hö	-4841
ila	-4842
olv	-4843
▁7.	-4844
eiße	-4845
ingu	-4846
isst	-4847
itur	-4848
nošt	-4849
orte	-4850
steh	-4851
wärt	-4852
▁Hex	-4853
▁Imp	-4854
▁Ker	-4855
▁Uns	-4856
ebung	-4857
folge	-4858
stieg	-4859
ählte	-4860
▁Glas	-4861
▁Hort	-4862
▁Oder	-4863
▁Sack	-4864
▁Slow	-4865
zeiten	-4866
▁Ausfl	-4867
▁Gläub	-4868
▁Jedes	-4869
▁Schla	-4870
▁damal	-4871
rarbeit	-4872
▁Hälfte	-4873
▁Karten	-4874
▁Sünden	-4875
▁Wunsch	-4876
▁ausges	-4877
▁keiner	-4878
▁sitzen	-4879
▁sorgen	-4880
getragen	-4881
▁Brunnen	-4882
▁Entwurf	-4883
▁Lehrern	-4884
▁beliebt	-4885
▁überall	-4886
liegenden	-4887
▁gespielt	-4888
▁Schlüssel	-4889
▁Weltkrieg	-4890
▁Zuschauer	-4891
▁Schauspiel	-4892
▁Vertretern	-4893
▁Verwendung	-4894
▁teilnehmen	-4895
▁übertragen	-4896
▁Beziehungen	-4897
▁Delegierten	-4898
▁Abgeordneten	-4899
▁Vorstellungen	-4900
LA	-4901
Un	-4902
▁0	-4903
zer	-4904
ürf	-4905
▁Ba	-4906
ehrt	-4907
irge	-4908
wart	-4909
▁197	-4910
▁Bur	-4911
▁Bär	-4912
▁Sei	-4913
▁Wür	-4914
▁Zug	-4915
ammer	-4916
ivals	-4917
lange	-4918
langt	-4919
onstr	-4920
▁Eind	-4921
▁Habt	-4922
▁Korn	-4923
▁Teuf	-4924
▁drin	-4925
▁wohn	-4926
folgen	-4927
räumen	-4928
wander	-4929
▁Flöte	-4930
▁Menge	-4931
▁Regel	-4932
▁Rohne	-4933
▁Straf	-4934
▁euren	-4935
▁städt	-4936
Projekt	-4937
ichtbar	-4938
projekt	-4939
▁Aktion	-4940
▁Arnošt	-4941
▁Betreu	-4942
▁Grenze	-4943
▁Händen	-4944
▁Interv	-4945
▁Museen	-4946
▁Obwohl	-4947
▁Zittau	-4948
▁spezif	-4949
▁vorbei	-4950
▁Flächen	-4951
▁Gesicht	-4952
▁bezieht	-4953
▁scheint	-4954
verfahren	-4955
▁Erlernen	-4956
▁Netzwerk	-4957
▁Produkte	-4958
▁Sprecher	-4959
▁befindet	-4960
▁dokument	-4961
▁entsteht	-4962
▁erlernen	-4963
▁erwartet	-4964
▁gepflegt	-4965
▁meistens	-4966
▁ältesten	-4967
▁Teilnahme	-4968
▁regionale	-4969
▁verankert	-4970
schließlich	-4971
▁Vorstellung	-4972
▁finanzielle	-4973
▁wichtigsten	-4974
▁zukünftigen	-4975
▁International	-4976
▁Internetseite	-4977
30	-4978
we	-4979
agd	-4980
hei	-4981
irm	-4982
une	-4983
ült	-4984
▁II	-4985
▁ök	-4986
aher	-4987
anze	-4988
arta	-4989
enzt	-4990
äden	-4991
besch	-4992
digte	-4993
ehrte	-4994
halle	-4995
kehrt	-4996
leute	-4997
ließt	-4998
ochth	-4999
▁Comp	-5000
▁Stre	-5001
▁Team	-5002
▁Trin	-5003
▁Verm	-5004
▁Voll	-5005
▁jung	-5006
▁laut	-5007
▁länd	-5008
bücher	-5009
gefähr	-5010
▁Apost	-5011
▁Geden	-5012
▁Linie	-5013
▁Organ	-5014
▁erlau	-5015
▁konst	-5016
gerecht	-5017
verkehr	-5018
▁Brücke	-5019
▁Buchst	-5020
▁Geheim	-5021
▁Montag	-5022
▁Schmer	-5023
▁gingen	-5024
▁treten	-5025
svereine	-5026
▁Ausgang	-5027
▁Auswahl	-5028
▁Journal	-5029
▁Samstag	-5030
▁Schwarz	-5031
▁Vortrag	-5032
▁beginnt	-5033
▁erhielt	-5034
▁gezielt	-5035
▁schwier	-5036
ammlungen	-5037
gemeinden	-5038
▁Kommunal	-5039
▁Mittwoch	-5040
▁geregelt	-5041
▁gleichen	-5042
▁vergeben	-5043
▁Gespräche	-5044
▁bisherige	-5045
▁Mannschaft	-5046
▁wichtigste	-5047
verständlich	-5048
▁öffentliche	-5049
▁Herrlichkeit	-5050
▁Obersorbisch	-5051
▁Verbesserung	-5052
▁historischen	-5053
▁zweisprachig	-5054
▁Haushaltsplan	-5055
▁grundsätzlich	-5056
▁untereinander	-5057
",	-5058
bo	-5059
ip	-5060
abl	-5061
bte	-5062
gor	-5063
oge	-5064
▁5.	-5065
▁Oh	-5066
aske	-5067
esse	-5068
feln	-5069
inen	-5070
irca	-5071
ried	-5072
zern	-5073
ügel	-5074
▁Hir	-5075
▁Kre	-5076
▁Leg	-5077
▁Sim	-5078
▁kir	-5079
▁zeu	-5080
egion	-5081
ffekt	-5082
ftige	-5083
heben	-5084
ottes	-5085
▁Kret	-5086
▁Lekt	-5087
▁Mühe	-5088
▁Prie	-5089
▁Russ	-5090
▁Weis	-5091
▁ries	-5092
▁sage	-5093
▁ziel	-5094
bungen	-5095
gerech	-5096
▁Ebene	-5097
▁Einla	-5098
▁Evalu	-5099
▁Marko	-5100
▁Osten	-5101
▁Prakt	-5102
▁Sätze	-5103
▁aufzu	-5104
▁fahre	-5105
▁sucht	-5106
Gruppen	-5107
achtung	-5108
deutsch	-5109
ötzlich	-5110
▁Abitur	-5111
▁Archiv	-5112
▁Bisher	-5113
▁Kaffee	-5114
▁Reicht	-5115
▁hinein	-5116
▁Gremium	-5117
▁Kulturt	-5118
▁Monaten	-5119
▁Märchen	-5120
▁Ordnung	-5121
▁begaben	-5122
▁bemühen	-5123
▁gefragt	-5124
bildungen	-5125
ifikation	-5126
▁Erlebnis	-5127
▁Gegenden	-5128
▁Hinblick	-5129
▁Position	-5130
▁Stadtrat	-5131
▁Verständ	-5132
▁liebsten	-5133
▁Braunkohl	-5134
▁Hochkirch	-5135
▁Natürlich	-5136
▁digitalen	-5137
▁konkreten	-5138
▁Verhältnis	-5139
▁Crostwitzer	-5140
▁notwendigen	-5141
▁stattfinden	-5142
▁Trägerschaft	-5143
▁ausgerichtet	-5144
▁evangelische	-5145
▁finanziellen	-5146
Niederschlesien	-5147
▁Digitalisierung	-5148
An	-5149
ER	-5150
ij	-5151
ti	-5152
old	-5153
ons	-5154
0000	-5155
ahrt	-5156
gier	-5157
kern	-5158
länd	-5159
rick	-5160
schü	-5161
▁Bad	-5162
▁Bar	-5163
▁Gib	-5164
▁Gru	-5165
▁Heu	-5166
▁Spr	-5167
erenz	-5168
ibaum	-5169
walde	-5170
▁Kurs	-5171
▁Sand	-5172
▁oben	-5173
▁unge	-5174
hauses	-5175
iziert	-5176
rechte	-5177
reitet	-5178
örtern	-5179
▁Erden	-5180
▁Frank	-5181
▁Orten	-5182
▁Wiese	-5183
▁Zudem	-5184
▁blieb	-5185
▁schlä	-5186
angebot	-5187
gesicht	-5188
planung	-5189
▁Alters	-5190
▁Empfeh	-5191
▁Norden	-5192
▁Präsid	-5193
▁Wähler	-5194
▁Zahlen	-5195
▁jeweil	-5196
▁wirkte	-5197
beziehen	-5198
deutsche	-5199
▁Wohnung	-5200
▁dritten	-5201
▁gedacht	-5202
maßnahmen	-5203
▁Funktion	-5204
▁aufgrund	-5205
▁autochth	-5206
▁begonnen	-5207
▁erfüllen	-5208
▁passiert	-5209
▁schützen	-5210
▁verboten	-5211
▁verkauft	-5212
▁Antworten	-5213
▁Gegenwart	-5214
▁Großvater	-5215
▁anerkannt	-5216
▁lebendige	-5217
▁slawische	-5218
▁übergeben	-5219
▁angemessen	-5220
▁beteiligen	-5221
▁wiederholt	-5222
▁übernommen	-5223
▁auseinander	-5224
▁interessant	-5225
▁Brandenburgs	-5226
▁Arbeitsgruppe	-5227
▁Hoyerswerdaer	-5228
veranstaltungen	-5229
to	-5230
ys	-5231
aar	-5232
ign	-5233
kur	-5234
ähl	-5235
tert	-5236
wirt	-5237
ätig	-5238
▁Che	-5239
▁Syn	-5240
einer	-5241
idakt	-5242
lüsse	-5243
riebe	-5244
rüfen	-5245
ziger	-5246
▁Bier	-5247
▁Elem	-5248
▁Flei	-5249
▁Miss	-5250
▁Pass	-5251
▁Prin	-5252
chtest	-5253
werber	-5254
werten	-5255
▁Brand	-5256
▁Engel	-5257
▁Kreuz	-5258
▁Moder	-5259
▁Verst	-5260
▁höher	-5261
▁Flücht	-5262
▁Inszen	-5263
▁Intend	-5264
▁Kuchen	-5265
▁Nutzer	-5266
▁Pferde	-5267
▁Spuren	-5268
▁andern	-5269
▁begrün	-5270
▁denken	-5271
▁einzig	-5272
▁gelegt	-5273
▁leider	-5274
▁mitten	-5275
▁realis	-5276
▁Maibaum	-5277
▁anderes	-5278
▁beendet	-5279
▁draußen	-5280
▁erfolgt	-5281
▁fordern	-5282
▁kümmern	-5283
deutschen	-5284
▁Computer	-5285
▁Hinweise	-5286
▁Planungs	-5287
▁betrifft	-5288
▁geholfen	-5289
▁stellten	-5290
▁zunächst	-5291
hauptstadt	-5292
▁Rosenthal	-5293
▁arbeitete	-5294
▁berichtet	-5295
▁langfrist	-5296
▁Superinten	-5297
▁Gemeinderat	-5298
▁Oberschulen	-5299
▁Verständnis	-5300
▁katholische	-5301
▁Schülerinnen	-5302
▁verpflichtet	-5303
kn	-5304
aun	-5305
aur	-5306
beg	-5307
ift	-5308
zep	-5309
▁11	-5310
▁4.	-5311
▁vö	-5312
▁Är	-5313
ecke	-5314
offe	-5315
roll	-5316
schu	-5317
ühle	-5318
▁17.	-5319
▁The	-5320
▁san	-5321
▁äuß	-5322
polit	-5323
äumen	-5324
▁Obst	-5325
▁Wann	-5326
▁Will	-5327
▁deut	-5328
▁hieß	-5329
fangen	-5330
freund	-5331
ichert	-5332
▁Außen	-5333
▁Ehren	-5334
▁Haben	-5335
▁Kultu	-5336
▁Lesen	-5337
▁Löbau	-5338
▁Onkel	-5339
▁Pläne	-5340
▁Wider	-5341
▁beein	-5342
▁bekam	-5343
▁circa	-5344
▁könnt	-5345
▁liter	-5346
▁natür	-5347
▁zuvor	-5348
armherz	-5349
ziellen	-5350
▁Bedürf	-5351
▁Schwei	-5352
▁fragen	-5353
▁größer	-5354
▁orient	-5355
ierenden	-5356
stattung	-5357
▁Akteure	-5358
▁Erinner	-5359
▁Schluss	-5360
▁Verband	-5361
▁alleine	-5362
▁betrach	-5363
▁gekauft	-5364
▁gelingt	-5365
▁standen	-5366
▁tausend	-5367
▁Ereignis	-5368
▁Sammlung	-5369
▁genannte	-5370
handlungen	-5371
▁Angeboten	-5372
▁Angesicht	-5373
▁Vergleich	-5374
▁Workshops	-5375
▁Zuwendung	-5376
▁einkaufen	-5377
▁richtigen	-5378
vorsitzende	-5379
▁Gestaltung	-5380
▁Kretschmer	-5381
▁übernehmen	-5382
▁Präsentation	-5383
▁Vorbereitungen	-5384
."	-5385
.“	-5386
ius	-5387
adel	-5388
ibel	-5389
klär	-5390
oche	-5391
ocht	-5392
skon	-5393
▁12.	-5394
▁Pla	-5395
▁Red	-5396
▁Tur	-5397
▁Wit	-5398
▁bez	-5399
▁mag	-5400
▁öst	-5401
eiert	-5402
hoben	-5403
irche	-5404
owitz	-5405
ritor	-5406
rücke	-5407
sätze	-5408
▁Aben	-5409
▁Büro	-5410
▁Vorb	-5411
▁legt	-5412
▁nutz	-5413
ademie	-5414
einigt	-5415
fallen	-5416
folger	-5417
talien	-5418
umente	-5419
unkten	-5420
▁Autob	-5421
▁Lauen	-5422
▁Strom	-5423
▁kirch	-5424
▁sahen	-5425
▁somit	-5426
▁verfü	-5427
agentur	-5428
▁Anteil	-5429
▁Niveau	-5430
▁Schatz	-5431
▁Schull	-5432
▁freund	-5433
▁hoffen	-5434
▁kosten	-5435
▁zeigte	-5436
▁überra	-5437
indungen	-5438
otenzial	-5439
▁Heilige	-5440
▁Lehramt	-5441
▁Zentral	-5442
▁attrakt	-5443
▁bekommt	-5444
▁beträgt	-5445
▁literar	-5446
führungen	-5447
stitution	-5448
▁Einblick	-5449
▁Einfluss	-5450
▁Erarbeit	-5451
▁Experten	-5452
▁Freizeit	-5453
▁Frühjahr	-5454
▁Standort	-5455
▁modernen	-5456
▁schlafen	-5457
▁zentrale	-5458
management	-5459
▁Broschüre	-5460
▁Krankheit	-5461
▁Sprachver	-5462
▁Verfahren	-5463
▁Verhalten	-5464
▁begeister	-5465
▁begleiten	-5466
▁bestätigt	-5467
▁erweitert	-5468
▁wichtiges	-5469
▁diskutiert	-5470
▁engagieren	-5471
▁ordentlich	-5472
▁verbessern	-5473
▁pädagogischen	-5474
▁vorgeschlagen	-5475
▁niedersorbische	-5476
▁wirtschaftliche	-5477
UH	-5478
ta	-5479
Kon	-5480
eis	-5481
kat	-5482
ske	-5483
vid	-5484
▁24	-5485
▁6.	-5486
asen	-5487
gren	-5488
oben	-5489
omin	-5490
stes	-5491
zehn	-5492
▁15.	-5493
▁Hor	-5494
▁Völ	-5495
▁Wöl	-5496
▁abs	-5497
▁ans	-5498
▁dre	-5499
▁wus	-5500
swahl	-5501
wirkt	-5502
▁Fakt	-5503
▁Hund	-5504
▁Scha	-5505
▁Wirk	-5506
▁Zeug	-5507
▁kost	-5508
▁sach	-5509
▁trat	-5510
gungen	-5511
leiche	-5512
sphäre	-5513
▁Gebet	-5514
▁Innen	-5515
▁Rauch	-5516
▁Relig	-5517
▁beweg	-5518
▁feier	-5519
▁indem	-5520
▁konse	-5521
▁leich	-5522
▁ständ	-5523
▁überw	-5524
ktionen	-5525
pflicht	-5526
▁Ausbau	-5527
▁Aussch	-5528
▁Rücken	-5529
▁Schles	-5530
▁leitet	-5531
▁passen	-5532
▁vertra	-5533
▁völlig	-5534
ständige	-5535
zusetzen	-5536
▁Auswirk	-5537
▁Bürgern	-5538
▁Italien	-5539
▁Schwier	-5540
▁Tagebau	-5541
▁begrüßt	-5542
▁ergänzt	-5543
▁trinken	-5544
▁Festival	-5545
▁Freunden	-5546
▁Methoden	-5547
▁digitale	-5548
scheinlich	-5549
▁Mitglieds	-5550
▁Rechtsanw	-5551
▁Zeitungen	-5552
▁möglichst	-5553
▁Evangelium	-5554
▁Konzeption	-5555
▁Landkreise	-5556
▁Erarbeitung	-5557
▁aufgestellt	-5558
▁miteinander	-5559
▁umfangreich	-5560
armherzigkeit	-5561
▁verabschiedet	-5562
▁Kulturtourismus	-5563
CO	-5564
KO	-5565
ari	-5566
orp	-5567
sal	-5568
see	-5569
umm	-5570
▁70	-5571
▁Go	-5572
▁Ol	-5573
hein	-5574
iten	-5575
orgt	-5576
quen	-5577
same	-5578
trem	-5579
▁Dir	-5580
▁Kan	-5581
▁Opp	-5582
▁Tal	-5583
▁ruh	-5584
verst	-5585
▁2012	-5586
▁Näch	-5587
▁Ohne	-5588
▁Tele	-5589
▁Wand	-5590
▁bean	-5591
▁fern	-5592
▁ließ	-5593
atisch	-5594
eignet	-5595
ession	-5596
gewöhn	-5597
unsten	-5598
wissen	-5599
zahlen	-5600
ärchen	-5601
▁Jurij	-5602
▁Katze	-5603
▁Markt	-5604
▁Vögel	-5605
▁dahin	-5606
▁finde	-5607
▁freut	-5608
▁tätig	-5609
▁zweit	-5610
chester	-5611
irektor	-5612
nehmern	-5613
äuschen	-5614
▁Gefahr	-5615
▁Kontex	-5616
▁Marien	-5617
▁Monate	-5618
▁angest	-5619
▁gefähr	-5620
▁invest	-5621
▁nennen	-5622
▁verlie	-5623
▁verwir	-5624
gefallen	-5625
▁Bergbau	-5626
▁Dennoch	-5627
▁Führung	-5628
▁Mitteln	-5629
▁Spielen	-5630
▁begeben	-5631
▁zwanzig	-5632
▁Christen	-5633
▁Franzisk	-5634
▁beginnen	-5635
▁erneuert	-5636
▁erstmals	-5637
▁erzählen	-5638
▁gefeiert	-5639
▁schlecht	-5640
sorbischer	-5641
▁täglichen	-5642
▁verändert	-5643
übergreifen	-5644
▁Unterlagen	-5645
▁erscheinen	-5646
▁Schließlich	-5647
▁Weihnachten	-5648
▁Arbeitskreis	-5649
▁interessante	-5650
▁Mitarbeiterin	-5651
▁Barmherzigkeit	-5652
▁Besonderheiten	-5653
5.	-5654
?!	-5655
Sp	-5656
ep	-5657
hl	-5658
jm	-5659
ěz	-5660
Mit	-5661
fil	-5662
hel	-5663
ose	-5664
pel	-5665
wid	-5666
öße	-5667
▁28	-5668
▁90	-5669
▁Ew	-5670
ikal	-5671
änge	-5672
▁Dok	-5673
▁Jer	-5674
▁Kit	-5675
▁Not	-5676
▁Vom	-5677
▁erl	-5678
▁wor	-5679
Preis	-5680
iegen	-5681
istin	-5682
rückt	-5683
▁Engl	-5684
▁Erfü	-5685
▁Euer	-5686
▁FUEN	-5687
▁Karl	-5688
▁Krie	-5689
▁Käse	-5690
▁Pest	-5691
▁Phil	-5692
▁Rand	-5693
▁Sejm	-5694
▁Spaß	-5695
▁Wall	-5696
▁abzu	-5697
▁ewig	-5698
▁uner	-5699
affung	-5700
etztes	-5701
etzung	-5702
räftig	-5703
seiten	-5704
walder	-5705
▁Analy	-5706
▁Daher	-5707
▁Dauer	-5708
▁Eimer	-5709
▁Sorbe	-5710
▁dauer	-5711
▁ernst	-5712
▁stolz	-5713
anlagen	-5714
gebiete	-5715
koordin	-5716
zeitung	-5717
▁Begegn	-5718
▁Charta	-5719
▁Erzieh	-5720
▁Israel	-5721
▁Jünger	-5722
▁Wunder	-5723
▁Zugang	-5724
▁antwor	-5725
▁besitz	-5726
▁dauert	-5727
▁folgte	-5728
▁siehst	-5729
▁widmen	-5730
sächlich	-5731
zentrums	-5732
▁Artikel	-5733
▁Praktik	-5734
▁Völkern	-5735
▁eigener	-5736
▁schafft	-5737
fähigkeit	-5738
▁Dienstag	-5739
▁Erweiter	-5740
▁Ewigkeit	-5741
▁Richtung	-5742
▁Vorgehen	-5743
▁dringend	-5744
▁erinnert	-5745
▁nachhalt	-5746
Sorbischen	-5747
ifizierung	-5748
▁Beispiele	-5749
▁Brauchtum	-5750
▁Görlitzer	-5751
▁geblieben	-5752
▁politisch	-5753
▁schönsten	-5754
▁verbinden	-5755
▁Gaststätte	-5756
▁Malschwitz	-5757
▁Wörterbuch	-5758
▁Klimaschutz	-5759
▁bestehenden	-5760
▁Braunkohleta	-5761
▁Fördermittel	-5762
▁interessiert	-5763
▁Beschäftigung	-5764
▁Pfarrgemeinde	-5765
ole	-5766
zul	-5767
zur	-5768
▁80	-5769
▁Mu	-5770
▁Sä	-5771
auft	-5772
dige	-5773
eada	-5774
eils	-5775
geht	-5776
ourc	-5777
pend	-5778
örde	-5779
▁10.	-5780
▁500	-5781
▁Lob	-5782
▁Rot	-5783
▁SSV	-5784
▁Spe	-5785
▁Tat	-5786
▁WUH	-5787
▁anb	-5788
▁bau	-5789
▁kre	-5790
agger	-5791
ariat	-5792
estät	-5793
eting	-5794
gress	-5795
nungs	-5796
weile	-5797
weist	-5798
üpfen	-5799
üssen	-5800
▁Arme	-5801
▁Brěz	-5802
▁Mund	-5803
▁Rest	-5804
▁Roma	-5805
▁Turm	-5806
▁Unge	-5807
▁genü	-5808
▁üben	-5809
iedelt	-5810
kosten	-5811
schlag	-5812
zielle	-5813
▁Alten	-5814
▁David	-5815
▁Falls	-5816
▁Konfl	-5817
▁Ohren	-5818
▁Verbr	-5819
▁baden	-5820
▁elekt	-5821
▁fällt	-5822
▁weist	-5823
enthalt	-5824
reicher	-5825
▁Folgen	-5826
▁Gerade	-5827
▁Gästen	-5828
▁Nummer	-5829
▁Ochsen	-5830
▁Punkte	-5831
▁Seiler	-5832
▁Speise	-5833
▁Teufel	-5834
▁laufen	-5835
▁vieler	-5836
angebote	-5837
mosphäre	-5838
▁Apostel	-5839
▁Boxberg	-5840
▁moderne	-5841
▁sammeln	-5842
stellungs	-5843
twicklung	-5844
unktionen	-5845
▁Anliegen	-5846
▁Demokrat	-5847
▁Gesetzes	-5848
▁Zeitraum	-5849
▁beachtet	-5850
▁gebracht	-5851
▁versucht	-5852
▁Erfüllung	-5853
forderungen	-5854
ottesdienst	-5855
▁Beratungen	-5856
▁Buchstaben	-5857
▁Hauptstadt	-5858
▁Strukturen	-5859
▁Umsiedlung	-5860
▁erarbeiten	-5861
▁ländlichen	-5862
▁verhindern	-5863
▁Abgeordnete	-5864
▁Forderungen	-5865
▁Institution	-5866
▁beherrschen	-5867
▁historische	-5868
▁Volksgruppen	-5869
▁Wendenkönigs	-5870
▁herausgegeben	-5871
▁internationale	-5872
6.	-5873
hm	-5874
DKO	-5875
feh	-5876
ile	-5877
mäh	-5878
rün	-5879
ses	-5880
stu	-5881
yer	-5882
ärm	-5883
▁21	-5884
▁60	-5885
chiv	-5886
herr	-5887
ller	-5888
rand	-5889
tags	-5890
wort	-5891
zert	-5892
ärte	-5893
▁Bal	-5894
▁Ehe	-5895
▁Kom	-5896
▁Tor	-5897
▁dän	-5898
▁ref	-5899
▁tie	-5900
LADKO	-5901
andte	-5902
masch	-5903
metho	-5904
musik	-5905
spark	-5906
stens	-5907
älder	-5908
▁Bank	-5909
▁Ecke	-5910
▁Neue	-5911
▁Wild	-5912
▁Zeiß	-5913
▁hohe	-5914
▁jene	-5915
▁rief	-5916
Kinder	-5917
annter	-5918
haltet	-5919
orgung	-5920
ressen	-5921
uliert	-5922
ündnis	-5923
▁Darin	-5924
▁Einer	-5925
▁Eisen	-5926
▁Ihrem	-5927
▁Loren	-5928
▁Meter	-5929
▁Train	-5930
▁Zweit	-5931
▁denke	-5932
▁erwäh	-5933
▁gestr	-5934
▁monat	-5935
▁sitzt	-5936
Vorsitz	-5937
gebäude	-5938
osition	-5939
partner	-5940
spruchs	-5941
▁Aufbau	-5942
▁Frucht	-5943
▁Glaube	-5944
▁Sorgen	-5945
▁Vaters	-5946
▁falsch	-5947
▁glaubt	-5948
▁selten	-5949
▁steckt	-5950
▁widmet	-5951
▁ändern	-5952
gebieten	-5953
gestimmt	-5954
kompeten	-5955
sekretär	-5956
▁Christi	-5957
▁Minuten	-5958
▁enthält	-5959
▁stecken	-5960
▁umgehen	-5961
konferenz	-5962
kretariat	-5963
▁Belebung	-5964
▁Premiere	-5965
▁Regiment	-5966
▁intensiv	-5967
▁zerstört	-5968
bibliothek	-5969
▁Forderung	-5970
▁Politiker	-5971
▁Schiemann	-5972
▁gestaltet	-5973
materialien	-5974
unternehmen	-5975
▁finanziell	-5976
▁sprachlich	-5977
▁willkommen	-5978
italisierung	-5979
▁Beteiligung	-5980
▁Geschichten	-5981
▁Teilnehmern	-5982
▁informierte	-5983
▁schließlich	-5984
▁staatlichen	-5985
▁unmittelbar	-5986
▁vollständig	-5987
veranstaltung	-5988
▁europäischer	-5989
▁Arbeitsplätze	-5990
▁unterscheiden	-5991
▁Nationalsozial	-5992
▁Schriftsteller	-5993
▁Schwierigkeiten	-5994
Th	-5995
ix	-5996
jo	-5997
oł	-5998
tä	-5999
Ort	-6000
ice	-6001
lav	-6002
rep	-6003
üse	-6004
▁Ka	-6005
▁Na	-6006
▁fü	-6007
▁mü	-6008
Orts	-6009
alem	-6010
lein	-6011
samt	-6012
stud	-6013
umme	-6014
äuft	-6015
▁Arg	-6016
▁Asy	-6017
▁Hat	-6018
▁Kos	-6019
▁Maß	-6020
▁Ton	-6021
▁Trä	-6022
▁imm	-6023
▁typ	-6024
▁zug	-6025
arden	-6026
isser	-6027
▁Eier	-6028
▁Güte	-6029
▁Kart	-6030
▁Sinn	-6031
▁ausd	-6032
▁diff	-6033
▁häuf	-6034
▁lädt	-6035
▁wann	-6036
▁wend	-6037
estern	-6038
gendes	-6039
handen	-6040
ischem	-6041
lehrer	-6042
lichem	-6043
sident	-6044
wertet	-6045
▁Anreg	-6046
▁Bäume	-6047
▁Ernte	-6048
▁Eröff	-6049
▁Honig	-6050
▁Kilom	-6051
▁Sagen	-6052
▁abgeb	-6053
▁beton	-6054
▁legen	-6055
▁zuges	-6056
dienste	-6057
ierende	-6058
▁Diesen	-6059
▁Gewalt	-6060
▁Kompon	-6061
▁Linken	-6062
▁Online	-6063
▁Schrei	-6064
▁Soldat	-6065
▁Status	-6066
▁Sänger	-6067
▁Volksk	-6068
▁danken	-6069
▁deines	-6070
▁heißen	-6071
▁leiten	-6072
▁selber	-6073
atischen	-6074
▁Anträge	-6075
▁Kapitel	-6076
▁Koordin	-6077
▁Staaten	-6078
▁beeinfl	-6079
▁dankbar	-6080
▁offenen	-6081
▁reflekt	-6082
▁sichern	-6083
▁trocken	-6084
▁Altstadt	-6085
▁Eintritt	-6086
▁Manchmal	-6087
▁WUHLADKO	-6088
▁demokrat	-6089
▁erklärte	-6090
▁geachtet	-6091
▁umsetzen	-6092
▁Gläubigen	-6093
▁Immersion	-6094
▁Internats	-6095
▁gesammelt	-6096
▁geschehen	-6097
▁gestorben	-6098
▁plötzlich	-6099
▁Ereignisse	-6100
▁Evaluation	-6101
▁Vertretung	-6102
▁Wendischen	-6103
▁aufmerksam	-6104
▁beobachtet	-6105
▁Erweiterung	-6106
▁institution	-6107
▁Auswirkungen	-6108
▁Bestimmungen	-6109
▁hinsichtlich	-6110
▁präsentieren	-6111
▁Finanzierungs	-6112
▁Infrastruktur	-6113
▁Maßnahmenplan	-6114
▁Königswarthaer	-6115
▁Sorbengesetzes	-6116
▁verschiedensten	-6117
Hof	-6118
abe	-6119
iew	-6120
inu	-6121
orr	-6122
öhm	-6123
▁qu	-6124
enno	-6125
ktor	-6126
omit	-6127
ries	-6128
▁Bos	-6129
▁Dür	-6130
▁mel	-6131
▁süd	-6132
anger	-6133
artik	-6134
blatt	-6135
diger	-6136
eisen	-6137
iszip	-6138
lesen	-6139
schte	-6140
stufe	-6141
ugend	-6142
▁Auft	-6143
▁Gute	-6144
▁Horn	-6145
▁Jede	-6146
▁Jury	-6147
▁Kauf	-6148
▁Konf	-6149
▁Para	-6150
▁Räum	-6151
▁Send	-6152
▁Test	-6153
▁blau	-6154
▁land	-6155
▁warm	-6156
▁west	-6157
assung	-6158
häuser	-6159
klicht	-6160
mitten	-6161
schwal	-6162
system	-6163
▁Berge	-6164
▁Enkel	-6165
▁Hexen	-6166
▁Sünde	-6167
▁Toten	-6168
▁gemäß	-6169
▁komme	-6170
▁krank	-6171
▁kurze	-6172
▁legte	-6173
gemeine	-6174
hörigen	-6175
▁Farben	-6176
▁Felder	-6177
▁Lösung	-6178
▁Slawen	-6179
▁Spiele	-6180
▁Später	-6181
▁Teiche	-6182
▁Untern	-6183
▁garant	-6184
▁integr	-6185
▁jünger	-6186
▁langen	-6187
▁normal	-6188
▁produz	-6189
▁schaut	-6190
▁soweit	-6191
▁willen	-6192
▁wächst	-6193
gebunden	-6194
isziplin	-6195
ädagogen	-6196
▁Bahnhof	-6197
▁Meister	-6198
▁Predigt	-6199
▁Schaden	-6200
▁Stipend	-6201
▁erleich	-6202
▁geführt	-6203
▁gewährt	-6204
▁konkret	-6205
▁koordin	-6206
▁reichen	-6207
icherheit	-6208
▁Eindruck	-6209
▁Priester	-6210
▁bereiten	-6211
▁beziehen	-6212
▁fröhlich	-6213
▁funktion	-6214
▁heiligen	-6215
▁mithilfe	-6216
ologischen	-6217
▁Höhepunkt	-6218
▁Mitarbeit	-6219
▁Orchester	-6220
▁Sitzungen	-6221
▁betroffen	-6222
▁einzigart	-6223
▁zukünftig	-6224
gehörigkeit	-6225
richtlinien	-6226
▁Jahrzehnte	-6227
▁beschreibt	-6228
▁besonderes	-6229
▁jeweiligen	-6230
▁kommunalen	-6231
▁persönlich	-6232
organisation	-6233
▁Auseinander	-6234
▁Betroffenen	-6235
▁Wahlperiode	-6236
▁Diskussionen	-6237
▁Schwerpunkte	-6238
▁Vorschriften	-6239
▁umfangreiche	-6240
▁verwirklicht	-6241
▁Verhandlungen	-6242
▁untergebracht	-6243
▁obersorbischen	-6244
7.	-6245
NES	-6246
ipp	-6247
opf	-6248
rug	-6249
seh	-6250
▁(1	-6251
▁Ir	-6252
▁fl	-6253
anne	-6254
bert	-6255
bten	-6256
ehme	-6257
izin	-6258
olut	-6259
rock	-6260
ular	-6261
öten	-6262
▁11.	-6263
▁Fig	-6264
▁Gar	-6265
▁Ser	-6266
▁Wes	-6267
▁los	-6268
▁opt	-6269
NESCO	-6270
ahnen	-6271
derte	-6272
holen	-6273
ieter	-6274
lecht	-6275
passt	-6276
produ	-6277
teuer	-6278
uhren	-6279
weils	-6280
▁Bern	-6281
▁Fein	-6282
▁Lass	-6283
▁Serv	-6284
▁Stad	-6285
▁leer	-6286
alität	-6287
andern	-6288
berger	-6289
dungen	-6290
jahres	-6291
museum	-6292
nische	-6293
offeln	-6294
rahmen	-6295
raucht	-6296
romung	-6297
runken	-6298
▁Farbe	-6299
▁Gramm	-6300
▁Masch	-6301
▁Milli	-6302
▁Segen	-6303
▁Sinti	-6304
▁Sonst	-6305
▁fehlt	-6306
▁hörte	-6307
▁läuft	-6308
▁sorgt	-6309
▁weltw	-6310
barkeit	-6311
vereins	-6312
wertung	-6313
zusagen	-6314
▁Bewerb	-6315
▁Brězan	-6316
▁Bäcker	-6317
▁Dorfes	-6318
▁Fläche	-6319
▁Fächer	-6320
▁Gemüse	-6321
▁UNESCO	-6322
▁Werken	-6323
▁aktive	-6324
▁dankte	-6325
▁fragte	-6326
▁längst	-6327
direktor	-6328
gewiesen	-6329
icherung	-6330
▁Absicht	-6331
▁Kontext	-6332
▁besetzt	-6333
▁dadurch	-6334
▁erlaubt	-6335
▁jeweils	-6336
▁rechten	-6337
austausch	-6338
sichtigen	-6339
▁Partnern	-6340
▁Stellver	-6341
▁Territor	-6342
▁anwenden	-6343
▁befinden	-6344
▁genügend	-6345
▁gestärkt	-6346
▁meistern	-6347
▁sichtbar	-6348
ausbildung	-6349
▁Einnahmen	-6350
▁Haushalts	-6351
▁Potenzial	-6352
▁Schaffung	-6353
▁berichten	-6354
▁bezüglich	-6355
▁schließen	-6356
▁vorhanden	-6357
merksamkeit	-6358
ständigkeit	-6359
▁Atmosphäre	-6360
▁Erfahrungs	-6361
▁betrachtet	-6362
▁verstecken	-6363
▁Bezeichnung	-6364
▁Hintergrund	-6365
▁Krankenhaus	-6366
▁beteiligten	-6367
▁städtischen	-6368
▁grundlegende	-6369
▁tschechische	-6370
▁Revitalisierung	-6371
?“	-6372
▁Š	-6373
ela	-6374
jen	-6375
kan	-6376
łom	-6377
SVTh	-6378
abin	-6379
dens	-6380
geld	-6381
ktur	-6382
mehr	-6383
ohsa	-6384
▁Etw	-6385
▁Frü	-6386
▁erb	-6387
▁kap	-6388
▁trö	-6389
▁weh	-6390
▁öff	-6391
akten	-6392
anien	-6393
entin	-6394
iegel	-6395
macht	-6396
mäßig	-6397
okoll	-6398
uther	-6399
wechs	-6400
zeuge	-6401
ütter	-6402
▁2001	-6403
▁Darf	-6404
▁Loch	-6405
▁Petr	-6406
▁Sehr	-6407
▁Tran	-6408
▁Turn	-6409
▁Zust	-6410
▁aufs	-6411
▁jähr	-6412
▁tran	-6413
digten	-6414
endete	-6415
ierter	-6416
ingung	-6417
passen	-6418
trages	-6419
vollen	-6420
▁Dawid	-6421
▁Lohsa	-6422
▁Nadel	-6423
▁Opfer	-6424
▁angen	-6425
▁enger	-6426
▁knapp	-6427
▁mache	-6428
▁mitge	-6429
▁überp	-6430
erseits	-6431
kindern	-6432
klärung	-6433
leisten	-6434
schüler	-6435
▁Bienen	-6436
▁Ritter	-6437
▁Schuhe	-6438
▁Symbol	-6439
▁frühen	-6440
eschwitz	-6441
hochzeit	-6442
ographie	-6443
▁Belange	-6444
▁Europar	-6445
▁Hinweis	-6446
▁Kategor	-6447
▁Kommune	-6448
▁Während	-6449
▁anstren	-6450
▁ausländ	-6451
▁entlang	-6452
▁gehörte	-6453
▁kümmert	-6454
▁richtet	-6455
forschung	-6456
▁Kollegen	-6457
▁Weiteren	-6458
▁deutlich	-6459
▁kürzlich	-6460
▁mögliche	-6461
▁schenken	-6462
▁Änderung	-6463
ungsgesetz	-6464
▁Eröffnung	-6465
▁Europeada	-6466
▁Gymnasien	-6467
▁Programms	-6468
▁anspruchs	-6469
▁engagiert	-6470
▁studierte	-6471
▁verkaufen	-6472
▁zugunsten	-6473
information	-6474
smitglieder	-6475
▁Aufenthalt	-6476
▁Beschlüsse	-6477
▁Fachkräfte	-6478
▁Nationalen	-6479
▁beinhaltet	-6480
▁sogenannte	-6481
▁zusätzlich	-6482
▁Ministerium	-6483
▁eingereicht	-6484
▁eingetragen	-6485
▁feststellen	-6486
▁Journalisten	-6487
▁Staatsanwalt	-6488
▁eingerichtet	-6489
▁organisieren	-6490
▁persönlichen	-6491
▁Veränderungen	-6492
▁Aufmerksamkeit	-6493
▁Mitgliedschaft	-6494
bH	-6495
ič	-6496
Ges	-6497
ama	-6498
bas	-6499
ias	-6500
opp	-6501
wor	-6502
xik	-6503
▁Fä	-6504
▁SM	-6505
▁ra	-6506
▁ur	-6507
atte	-6508
bart	-6509
igin	-6510
pila	-6511
stet	-6512
urig	-6513
▁31.	-6514
▁Bek	-6515
▁Bir	-6516
▁Bot	-6517
▁Fac	-6518
▁lag	-6519
▁lok	-6520
annen	-6521
artei	-6522
endes	-6523
euten	-6524
rolle	-6525
urcht	-6526
ätter	-6527
▁Bart	-6528
▁Ress	-6529
▁brei	-6530
▁enge	-6531
▁form	-6532
▁heim	-6533
▁sech	-6534
▁treu	-6535
garten	-6536
legung	-6537
person	-6538
▁Armen	-6539
▁Gutes	-6540
▁Immer	-6541
▁Räume	-6542
▁eurem	-6543
▁halte	-6544
▁mächt	-6545
▁nutzt	-6546
▁verbr	-6547
▁äußer	-6548
Lausitz	-6549
dakteur	-6550
ländern	-6551
mählich	-6552
reibung	-6553
spielen	-6554
▁Gesang	-6555
▁Herren	-6556
▁Knecht	-6557
▁Königs	-6558
▁Leider	-6559
▁Steuer	-6560
▁Strate	-6561
▁Unfall	-6562
▁Westen	-6563
▁daraus	-6564
▁dritte	-6565
▁gelang	-6566
▁hätten	-6567
▁nachzu	-6568
▁trafen	-6569
▁trifft	-6570
▁wartet	-6571
republik	-6572
▁Ausflug	-6573
▁Autoren	-6574
▁Fleisch	-6575
▁Gesetze	-6576
▁Quellen	-6577
▁bessere	-6578
▁betonte	-6579
▁einheit	-6580
▁größere	-6581
▁schmutz	-6582
angelegen	-6583
geordnete	-6584
schließen	-6585
verbänden	-6586
▁Aufnahme	-6587
▁Autobahn	-6588
▁Frühling	-6589
▁Gebieten	-6590
▁Schwarze	-6591
▁Sekretär	-6592
▁freiwill	-6593
▁geändert	-6594
▁inmitten	-6595
▁qualifiz	-6596
▁reagiert	-6597
bestimmung	-6598
nachmittag	-6599
▁Begeister	-6600
▁Betreuung	-6601
▁Nachricht	-6602
▁Schlangen	-6603
▁Schleswig	-6604
▁bekannten	-6605
▁differenz	-6606
▁offiziell	-6607
▁sozusagen	-6608
▁versuchen	-6609
▁übernimmt	-6610
▁überzeugt	-6611
▁Augenblick	-6612
▁Einführung	-6613
▁Höhepunkte	-6614
▁Verfassung	-6615
▁anzuwenden	-6616
gottesdienst	-6617
▁Arbeitgeber	-6618
▁Beauftragte	-6619
▁Forschungen	-6620
▁Reformation	-6621
▁Schulleiter	-6622
▁Sprachräume	-6623
▁Verbreitung	-6624
▁diskutieren	-6625
▁präsentiert	-6626
▁Angestellten	-6627
▁Tagesordnung	-6628
▁unterrichten	-6629
▁Anforderungen	-6630
▁Investitionen	-6631
▁ausgezeichnet	-6632
▁tschechischen	-6633
▁Stellvertreter	-6634
amp	-6635
lub	-6636
obt	-6637
ram	-6638
Haus	-6639
grem	-6640
koll	-6641
prob	-6642
rika	-6643
schm	-6644
ütze	-6645
▁16.	-6646
▁Deb	-6647
▁Ham	-6648
▁Tän	-6649
bchen	-6650
ejler	-6651
eligi	-6652
erung	-6653
orfer	-6654
preis	-6655
zweck	-6656
▁1989	-6657
▁2010	-6658
▁Bast	-6659
▁Drit	-6660
▁Grab	-6661
▁Lust	-6662
▁Priv	-6663
▁Rent	-6664
▁Vieh	-6665
▁ethn	-6666
▁hilf	-6667
barung	-6668
eignen	-6669
eitete	-6670
gelung	-6671
ordnen	-6672
riebes	-6673
sprung	-6674
spunkt	-6675
usalem	-6676
utzung	-6677
werken	-6678
▁Brett	-6679
▁Budar	-6680
▁DSVTh	-6681
▁Gedul	-6682
▁Jakub	-6683
▁Lasst	-6684
▁Neues	-6685
▁Stamm	-6686
▁abend	-6687
▁endet	-6688
▁erret	-6689
▁kenne	-6690
▁lasst	-6691
▁niedr	-6692
▁unten	-6693
▁weißt	-6694
bericht	-6695
glieder	-6696
prüfung	-6697
richter	-6698
theater	-6699
vention	-6700
▁Besitz	-6701
▁Europä	-6702
▁Kolleg	-6703
▁Quelle	-6704
▁Schafe	-6705
▁Schuld	-6706
▁Sonnen	-6707
▁akzept	-6708
▁junger	-6709
▁regelt	-6710
▁religi	-6711
▁teilte	-6712
bereiche	-6713
leistung	-6714
▁Telefon	-6715
▁Umfrage	-6716
▁Verkauf	-6717
▁Vorbild	-6718
▁ausgest	-6719
▁erkennt	-6720
▁gesetzt	-6721
▁großart	-6722
▁handeln	-6723
▁niemals	-6724
▁starken	-6725
▁steigen	-6726
sterreich	-6727
▁Aufsicht	-6728
▁Eigentum	-6729
▁Gewässer	-6730
▁Nutzungs	-6731
▁Standard	-6732
▁ausgebil	-6733
▁benötigt	-6734
▁erlebten	-6735
▁regional	-6736
▁Einladung	-6737
▁Grammatik	-6738
▁Jerusalem	-6739
▁Kompetenz	-6740
▁Landesamt	-6741
▁Leipziger	-6742
▁Präsident	-6743
▁aufgebaut	-6744
▁Katholiken	-6745
▁Zuwendungs	-6746
▁untersucht	-6747
▁überregion	-6748
▁Ausstattung	-6749
▁Bewusstsein	-6750
▁Initiativen	-6751
▁diesjährige	-6752
wirtschaftung	-6753
▁Begeisterung	-6754
▁Buchhandlung	-6755
▁autochthonen	-6756
▁Publikationen	-6757
▁Redewendungen	-6758
▁gewährleisten	-6759
▁hauptsächlich	-6760
▁Bundesrepublik	-6761
▁Superintendent	-6762
▁Stadtverwaltung	-6763
▁Teichlandschaft	-6764
2)	-6765
SA	-6766
Su	-6767
iš	-6768
oß	-6769
ór	-6770
ane	-6771
ath	-6772
kas	-6773
ode	-6774
ven	-6775
zte	-6776
ühl	-6777
▁Ah	-6778
▁Gö	-6779
▁Ku	-6780
alte	-6781
anzt	-6782
baus	-6783
ifik	-6784
igem	-6785
ogle	-6786
omas	-6787
reck	-6788
ttem	-6789
urst	-6790
▁14.	-6791
▁192	-6792
▁25.	-6793
▁30.	-6794
▁Ann	-6795
▁Dor	-6796
▁Fle	-6797
▁Hey	-6798
▁Kro	-6799
▁Kub	-6800
▁Sil	-6801
▁Urs	-6802
▁fün	-6803
▁lob	-6804
asste	-6805
dungs	-6806
egnet	-6807
kunde	-6808
letzt	-6809
liegt	-6810
nacht	-6811
nerin	-6812
olden	-6813
sprün	-6814
zepte	-6815
órnik	-6816
ühlen	-6817
▁1945	-6818
▁Eich	-6819
▁FUEV	-6820
▁Find	-6821
▁Füße	-6822
▁Port	-6823
▁Prüf	-6824
▁Rett	-6825
▁Sekt	-6826
▁Verg	-6827
▁Vide	-6828
▁bege	-6829
▁lauf	-6830
▁sinn	-6831
▁spür	-6832
errett	-6833
hausen	-6834
innern	-6835
wahlen	-6836
wörter	-6837
zeugen	-6838
ährung	-6839
äusern	-6840
▁Darum	-6841
▁Davon	-6842
▁Elekt	-6843
▁Falle	-6844
▁Hilfs	-6845
▁Kampf	-6846
▁Kommt	-6847
▁Lande	-6848
▁Mühle	-6849
▁Ostro	-6850
▁Süden	-6851
▁Trink	-6852
▁hoffe	-6853
▁klare	-6854
▁liebt	-6855
▁plant	-6856
▁sorab	-6857
▁vorzu	-6858
auschen	-6859
lichten	-6860
sitzung	-6861
▁Geduld	-6862
▁Herrnh	-6863
▁Können	-6864
▁Petrus	-6865
▁Präsen	-6866
▁Schiff	-6867
▁Straft	-6868
▁Thomas	-6869
▁Urteil	-6870
▁Wandel	-6871
▁Zejler	-6872
▁aufgew	-6873
▁bedroh	-6874
▁fehlen	-6875
▁freien	-6876
▁kaputt	-6877
▁nannte	-6878
▁schlug	-6879
▁tanzen	-6880
gelassen	-6881
mitglied	-6882
schlagen	-6883
ttemberg	-6884
▁Analyse	-6885
▁Bildern	-6886
▁Dichter	-6887
▁Französ	-6888
▁Notwend	-6889
▁Protest	-6890
▁Schloss	-6891
▁Verwirk	-6892
▁aktiven	-6893
▁bewahrt	-6894
▁dagegen	-6895
▁erblick	-6896
▁gesucht	-6897
▁gewisse	-6898
▁kämpfen	-6899
▁langsam	-6900
▁solches	-6901
beziehung	-6902
errettich	-6903
▁Englisch	-6904
▁Friedens	-6905
▁elektron	-6906
▁gesungen	-6907
▁irgendwo	-6908
▁struktur	-6909
▁Übergang	-6910
gestaltung	-6911
vertretung	-6912
wettbewerb	-6913
▁Frühstück	-6914
▁Radiborer	-6915
▁ausgebaut	-6916
▁errichtet	-6917
▁geplanten	-6918
▁verbindet	-6919
▁Instrument	-6920
▁Weihnachts	-6921
▁Interessant	-6922
▁Kompetenzen	-6923
▁Meerrettich	-6924
▁Richtlinien	-6925
▁Situationen	-6926
▁Versammlung	-6927
▁Übersetzung	-6928
▁dokumentiert	-6929
▁erfolgreiche	-6930
▁teilgenommen	-6931
▁Vogelhochzeit	-6932
▁touristischen	-6933
▁Verwirklichung	-6934
▁Strukturwandels	-6935
ax	-6936
üm	-6937
fiz	-6938
get	-6939
irk	-6940
iti	-6941
kom	-6942
kri	-6943
mbH	-6944
änn	-6945
▁8.	-6946
▁9.	-6947
▁Fe	-6948
anka	-6949
hlen	-6950
istr	-6951
pekt	-6952
ädig	-6953
ückt	-6954
ühen	-6955
üpft	-6956
▁191	-6957
▁Erf	-6958
▁Har	-6959
▁Ihm	-6960
▁Kuh	-6961
▁Nje	-6962
▁Oma	-6963
▁Tee	-6964
▁Wün	-6965
▁rel	-6966
attet	-6967
ensib	-6968
greif	-6969
ilder	-6970
immig	-6971
lässt	-6972
ocken	-6973
reten	-6974
wagen	-6975
zesse	-6976
ültig	-6977
▁2006	-6978
▁2008	-6979
▁2009	-6980
▁Akte	-6981
▁Bald	-6982
▁Blau	-6983
▁Fünf	-6984
▁Halt	-6985
▁Händ	-6986
▁Jagd	-6987
▁Maße	-6988
▁Moos	-6989
▁Sind	-6990
▁West	-6991
▁dick	-6992
▁dunk	-6993
▁hand	-6994
▁jetz	-6995
▁müde	-6996
▁paar	-6997
▁ster	-6998
▁wies	-6999
Meißen	-7000
aterie	-7001
chenkt	-7002
eltern	-7003
gehend	-7004
legten	-7005
lieder	-7006
ourcen	-7007
▁Georg	-7008
▁Grüne	-7009
▁Kosel	-7010
▁Laien	-7011
▁Lutki	-7012
▁Pfing	-7013
▁Schol	-7014
▁Suche	-7015
▁begab	-7016
▁berüh	-7017
▁brach	-7018
▁meist	-7019
▁tritt	-7020
▁zeich	-7021
abinett	-7022
atische	-7023
eichern	-7024
hematik	-7025
mittags	-7026
olstein	-7027
sarbeit	-7028
ständen	-7029
zeptanz	-7030
▁Advent	-7031
▁Gebote	-7032
▁Hórnik	-7033
▁Lektor	-7034
▁Wiesen	-7035
▁achtet	-7036
▁effekt	-7037
▁festen	-7038
▁häufig	-7039
▁hörten	-7040
▁planen	-7041
▁selben	-7042
▁sowohl	-7043
▁starke	-7044
▁wenige	-7045
▁zahlen	-7046
Ensemble	-7047
ausstieg	-7048
sprecher	-7049
▁Gründen	-7050
▁Letzten	-7051
▁Nieders	-7052
▁abgesch	-7053
▁benannt	-7054
▁breiten	-7055
▁entfern	-7056
▁höchste	-7057
▁solcher	-7058
▁zuletzt	-7059
▁älteste	-7060
▁Bewerber	-7061
▁Finanzen	-7062
▁Referenz	-7063
▁Schritte	-7064
▁Sportler	-7065
▁beachten	-7066
▁besuchte	-7067
▁einfache	-7068
▁gebildet	-7069
▁speziell	-7070
▁trotzdem	-7071
▁verlangt	-7072
▁Akzeptanz	-7073
▁Fernsehen	-7074
▁Kriterien	-7075
▁Leistungs	-7076
▁Pädagogen	-7077
▁Vorfahren	-7078
▁Weiterhin	-7079
▁besuchten	-7080
▁empfangen	-7081
▁möglichen	-7082
▁zentralen	-7083
▁zumindest	-7084
kenntnissen	-7085
▁Erkenntnis	-7086
▁Erlebnisse	-7087
▁Erwachsene	-7088
▁Funktionen	-7089
▁Produktion	-7090
▁Wassermann	-7091
▁existieren	-7092
▁gefährlich	-7093
▁lebendigen	-7094
▁notwendige	-7095
▁unabhängig	-7096
▁Einstellung	-7097
▁Erwachsenen	-7098
▁Herausgeber	-7099
▁Marienstern	-7100
▁Nachrichten	-7101
▁Perspektive	-7102
▁Besonderheit	-7103
▁Fremdsprache	-7104
▁Jahrhunderte	-7105
▁Mitarbeitern	-7106
▁Dokumentation	-7107
▁Voraussetzung	-7108
▁ausschließlich	-7109
▁traditionellen	-7110
CD	-7111
SuB	-7112
wel	-7113
ämm	-7114
▁1,	-7115
▁Co	-7116
▁Kö	-7117
▁km	-7118
▁är	-7119
anke	-7120
auso	-7121
film	-7122
hört	-7123
klin	-7124
llel	-7125
ppel	-7126
sbet	-7127
▁400	-7128
▁Lud	-7129
▁Pfl	-7130
▁Pum	-7131
▁Zuf	-7132
▁nör	-7133
▁übr	-7134
chter	-7135
inken	-7136
meter	-7137
raben	-7138
sorge	-7139
swert	-7140
ucher	-7141
▁Acht	-7142
▁Geht	-7143
▁Kahn	-7144
▁Nimm	-7145
▁Prop	-7146
▁Wach	-7147
▁aust	-7148
▁bele	-7149
▁erhe	-7150
▁serb	-7151
estand	-7152
gesprä	-7153
gänger	-7154
lösung	-7155
ordent	-7156
orient	-7157
ächern	-7158
▁Bevor	-7159
▁Feier	-7160
▁Fisch	-7161
▁Laden	-7162
▁Neiße	-7163
▁Stern	-7164
▁Stich	-7165
▁Werte	-7166
▁folgt	-7167
▁fried	-7168
▁gramm	-7169
▁meint	-7170
▁passt	-7171
▁versp	-7172
▁wobei	-7173
ausende	-7174
entlich	-7175
fördern	-7176
hundert	-7177
ielseit	-7178
olution	-7179
präsent	-7180
punkten	-7181
zeichen	-7182
▁Geräte	-7183
▁Google	-7184
▁Regeln	-7185
▁Tanten	-7186
▁Teller	-7187
▁brennt	-7188
▁erhöht	-7189
▁fallen	-7190
▁großem	-7191
▁hinten	-7192
▁kurzen	-7193
▁modern	-7194
▁unterb	-7195
▁vertie	-7196
▁wecken	-7197
Holstein	-7198
artikels	-7199
bewohner	-7200
gebnisse	-7201
gekommen	-7202
spartner	-7203
▁Geistes	-7204
▁Schweiz	-7205
▁glauben	-7206
▁musikal	-7207
▁verbind	-7208
▁widersp	-7209
▁ähnlich	-7210
▁älteren	-7211
bendorfer	-7212
ologische	-7213
▁brauchst	-7214
▁entgegen	-7215
▁erwerben	-7216
▁gebunden	-7217
▁geeinigt	-7218
▁größeren	-7219
▁ungefähr	-7220
▁verletzt	-7221
▁weltweit	-7222
▁wertvoll	-7223
▁Abschnitt	-7224
▁Kilometer	-7225
▁Landtages	-7226
▁Projektes	-7227
▁antworten	-7228
▁bestanden	-7229
▁betreffen	-7230
▁enthalten	-7231
▁erfordert	-7232
▁schlechte	-7233
▁schwarzen	-7234
▁verlieren	-7235
ausstellung	-7236
sekretariat	-7237
▁Kulturraum	-7238
▁Milliarden	-7239
▁Nachfolger	-7240
▁Zustimmung	-7241
▁regionaler	-7242
vorsitzenden	-7243
▁Beteiligten	-7244
▁Dienstleist	-7245
▁Sicherheits	-7246
▁herausragen	-7247
▁zuständigen	-7248
▁Landeskirche	-7249
▁Landtagswahl	-7250
▁ehrenamtlich	-7251
▁mittlerweile	-7252
▁veranstaltet	-7253
▁Geschäftsführ	-7254
▁obersorbische	-7255
▁Räumlichkeiten	-7256
0.	-7257
EK	-7258
uk	-7259
üb	-7260
fig	-7261
iny	-7262
jet	-7263
nah	-7264
owa	-7265
pon	-7266
sbe	-7267
war	-7268
zum	-7269
▁Tr	-7270
abel	-7271
amer	-7272
bald	-7273
enka	-7274
ffiz	-7275
ftet	-7276
hard	-7277
heft	-7278
holt	-7279
inde	-7280
klag	-7281
lebt	-7282
nütz	-7283
omen	-7284
rale	-7285
wege	-7286
ören	-7287
▁Hau	-7288
▁Kör	-7289
▁Met	-7290
▁Mut	-7291
▁Pal	-7292
▁Par	-7293
▁Pot	-7294
▁Rät	-7295
▁Tro	-7296
▁Wal	-7297
▁Zus	-7298
▁mer	-7299
▁the	-7300
▁ums	-7301
abrik	-7302
arbei	-7303
dings	-7304
ebook	-7305
ehmer	-7306
haber	-7307
ischö	-7308
quent	-7309
rimin	-7310
ränke	-7311
sbuch	-7312
ussen	-7313
werbe	-7314
werte	-7315
yrill	-7316
ücken	-7317
▁2002	-7318
▁Also	-7319
▁Asyl	-7320
▁Elbe	-7321
▁Fast	-7322
▁GmbH	-7323
▁Gras	-7324
▁Ofen	-7325
▁eins	-7326
▁lust	-7327
▁münd	-7328
▁niem	-7329
▁ruft	-7330
▁schn	-7331
beiter	-7332
fahrer	-7333
hängig	-7334
jugend	-7335
stücke	-7336
▁Anmel	-7337
▁Imker	-7338
▁Jakob	-7339
▁LaSuB	-7340
▁Stoff	-7341
▁Stufe	-7342
▁Tageb	-7343
▁Teile	-7344
▁Vatik	-7345
▁droht	-7346
▁fährt	-7347
▁ruhig	-7348
▁stärk	-7349
arriere	-7350
denkmal	-7351
eichert	-7352
eignung	-7353
gerufen	-7354
griffen	-7355
schläge	-7356
▁Ablauf	-7357
▁Beirat	-7358
▁Beweis	-7359
▁Briefe	-7360
▁Exkurs	-7361
▁Histor	-7362
▁Master	-7363
▁Plätze	-7364
▁Scheun	-7365
▁Texten	-7366
▁Umfeld	-7367
▁bedarf	-7368
▁bewill	-7369
▁legten	-7370
▁offene	-7371
▁rechts	-7372
▁sauber	-7373
▁stärkt	-7374
▁wendet	-7375
▁wohnte	-7376
fassungs	-7377
standort	-7378
▁Bündnis	-7379
▁Einheit	-7380
▁Njepila	-7381
▁Serbske	-7382
▁arbeite	-7383
▁dennoch	-7384
▁fliegen	-7385
▁fürchte	-7386
▁geschie	-7387
▁schwere	-7388
▁Aussagen	-7389
▁Behinder	-7390
▁Gebietes	-7391
▁Kulturen	-7392
▁Reichtum	-7393
▁Russland	-7394
▁Theaters	-7395
▁begrenzt	-7396
▁erinnern	-7397
▁erschien	-7398
▁gehalten	-7399
▁möchtest	-7400
▁übernahm	-7401
▁Intendant	-7402
▁Interview	-7403
▁Ostereier	-7404
▁Protokoll	-7405
▁Veröffent	-7406
▁Wendische	-7407
▁benötigen	-7408
▁erhielten	-7409
▁gegenwärt	-7410
▁geschenkt	-7411
▁geschützt	-7412
▁niemanden	-7413
▁reagieren	-7414
▁schmecken	-7415
▁schneller	-7416
▁Anregungen	-7417
▁Begegnungs	-7418
▁Fachschule	-7419
▁Frankreich	-7420
▁Mathematik	-7421
▁Ministerin	-7422
▁Schwestern	-7423
▁berufliche	-7424
▁festgelegt	-7425
▁Änderungen	-7426
▁Grundgesetz	-7427
▁Naturschutz	-7428
▁Schwarzkoll	-7429
▁organisator	-7430
▁umliegenden	-7431
▁vielfältige	-7432
▁wesentliche	-7433
▁Einbeziehung	-7434
▁Insbesondere	-7435
▁Leitartikels	-7436
▁Veranstalter	-7437
▁schriftliche	-7438
▁teilzunehmen	-7439
▁Qualifikation	-7440
▁ehrenamtliche	-7441
▁konzentrieren	-7442
▁künstlerische	-7443
▁Persönlichkeit	-7444
▁erforderlichen	-7445
▁wahrscheinlich	-7446
9.	-7447
Ma	-7448
DER	-7449
Der	-7450
ora	-7451
oss	-7452
uhr	-7453
ämt	-7454
▁SA	-7455
▁eg	-7456
gste	-7457
kind	-7458
oman	-7459
otiv	-7460
üste	-7461
▁Anb	-7462
▁Jän	-7463
▁Mag	-7464
▁Maj	-7465
▁Opt	-7466
▁Pri	-7467
▁max	-7468
▁men	-7469
▁neg	-7470
appen	-7471
boden	-7472
ecken	-7473
einst	-7474
iehlt	-7475
länen	-7476
mächt	-7477
ohler	-7478
skanz	-7479
steil	-7480
▁1992	-7481
▁1998	-7482
▁2011	-7483
▁Dunk	-7484
▁Euch	-7485
▁Flug	-7486
▁Göda	-7487
▁Halb	-7488
▁Laub	-7489
▁Laut	-7490
▁Leib	-7491
▁Moor	-7492
▁Mose	-7493
▁fürs	-7494
▁nein	-7495
Verein	-7496
astrop	-7497
dessen	-7498
fläche	-7499
iertes	-7500
reifen	-7501
schwer	-7502
selben	-7503
sweise	-7504
weiser	-7505
werker	-7506
▁Bauer	-7507
▁Bären	-7508
▁Daran	-7509
▁Grenz	-7510
▁Guten	-7511
▁Ihren	-7512
▁Lexik	-7513
▁Noten	-7514
▁Olymp	-7515
▁Phase	-7516
▁Pumpe	-7517
▁Tafel	-7518
▁Traum	-7519
▁eröff	-7520
▁korre	-7521
▁nennt	-7522
▁schim	-7523
▁solch	-7524
▁zudem	-7525
▁öfter	-7526
alender	-7527
fertigt	-7528
laubnis	-7529
ografie	-7530
wirkung	-7531
▁Fällen	-7532
▁Gedenk	-7533
▁Getrei	-7534
▁Kritik	-7535
▁LEADER	-7536
▁Novell	-7537
▁Nowiny	-7538
▁Privat	-7539
▁Sieger	-7540
▁Slowen	-7541
▁Streit	-7542
▁Zeißig	-7543
▁Ziesch	-7544
▁dauern	-7545
▁einzur	-7546
▁golden	-7547
▁regeln	-7548
▁schlen	-7549
▁setzte	-7550
▁trinke	-7551
▁vieles	-7552
▁weisen	-7553
abkommen	-7554
qualität	-7555
▁Archite	-7556
▁Büchern	-7557
▁Chancen	-7558
▁Gebiete	-7559
▁Handeln	-7560
▁Herzens	-7561
▁Katalog	-7562
▁Konzern	-7563
▁Kräuter	-7564
▁Prinzip	-7565
▁Präsenz	-7566
▁Scholze	-7567
▁Schrank	-7568
▁Schäden	-7569
▁bekamen	-7570
▁geprüft	-7571
▁gesandt	-7572
▁gleiche	-7573
▁optimal	-7574
▁schrieb	-7575
bildenden	-7576
lingspark	-7577
▁Akademie	-7578
▁Arbeiter	-7579
▁Bestehen	-7580
▁Demonstr	-7581
▁Kenntnis	-7582
▁Regelung	-7583
▁Stellung	-7584
▁abhängig	-7585
▁eingesch	-7586
schließend	-7587
▁Gewinnung	-7588
▁Nachbarin	-7589
▁Neschwitz	-7590
▁Rittergut	-7591
▁Schneider	-7592
▁Sicherung	-7593
▁Sorbentum	-7594
▁Wallfahrt	-7595
▁bestimmen	-7596
▁geschicht	-7597
▁kommunale	-7598
▁kulturell	-7599
Vorsitzende	-7600
▁Begleitung	-7601
▁Handwerker	-7602
▁Positionen	-7603
▁Verpflicht	-7604
▁allgemeine	-7605
▁allmählich	-7606
▁anerkannte	-7607
▁überlassen	-7608
▁Schuljahres	-7609
▁Unterschied	-7610
▁Vereinigung	-7611
▁außerordent	-7612
▁entwickelte	-7613
▁gemeinsames	-7614
▁schriftlich	-7615
▁vergleichen	-7616
▁wiederholen	-7617
▁Hausaufgaben	-7618
▁Jugendarbeit	-7619
▁Novellierung	-7620
▁Perspektiven	-7621
▁pädagogische	-7622
▁Findlingspark	-7623
▁Fortbildungen	-7624
▁sprachfördern	-7625
▁weiterentwick	-7626
▁Referenzrahmen	-7627
▁Theaterleitung	-7628
▁berücksichtigen	-7629
38	-7630
«,	-7631
▁%	-7632
ala	-7633
hnt	-7634
mon	-7635
rau	-7636
vis	-7637
üge	-7638
▁35	-7639
▁Mě	-7640
▁Pa	-7641
abet	-7642
alls	-7643
band	-7644
brot	-7645
club	-7646
irol	-7647
ison	-7648
kopf	-7649
omie	-7650
opul	-7651
räte	-7652
site	-7653
ynam	-7654
zone	-7655
zung	-7656
äger	-7657
üten	-7658
▁Anf	-7659
▁Jud	-7660
▁Nik	-7661
▁Nor	-7662
▁Tau	-7663
▁Wah	-7664
▁grü	-7665
▁pil	-7666
Gesch	-7667
acken	-7668
bruch	-7669
eiers	-7670
eimar	-7671
feuer	-7672
glück	-7673
hafte	-7674
ignal	-7675
kampf	-7676
losen	-7677
orsam	-7678
stitu	-7679
uropa	-7680
welka	-7681
ützte	-7682
łomjo	-7683
▁2000	-7684
▁Blin	-7685
▁Denk	-7686
▁Fert	-7687
▁Inse	-7688
▁Zieh	-7689
▁egal	-7690
▁einf	-7691
▁fiel	-7692
▁jahr	-7693
▁raus	-7694
▁rest	-7695
▁umso	-7696
▁verf	-7697
Region	-7698
achbar	-7699
ahlung	-7700
anzler	-7701
bliche	-7702
ienten	-7703
istenz	-7704
kehren	-7705
längst	-7706
rechts	-7707
schätz	-7708
splatz	-7709
▁Armee	-7710
▁Ermut	-7711
▁Erste	-7712
▁Feste	-7713
▁Fotos	-7714
▁Größe	-7715
▁Ihrer	-7716
▁Lehre	-7717
▁Liebl	-7718
▁Mauer	-7719
▁Ochse	-7720
▁Potsd	-7721
▁Radio	-7722
▁Sorge	-7723
▁innov	-7724
▁lernt	-7725
▁stren	-7726
▁wollt	-7727
▁zieht	-7728
aufgabe	-7729
bischof	-7730
flächen	-7731
gremien	-7732
istisch	-7733
jenigen	-7734
kündigt	-7735
methode	-7736
schiede	-7737
weisung	-7738
▁Kannst	-7739
▁Leuten	-7740
▁Pilger	-7741
▁Reihen	-7742
▁Weimar	-7743
▁abends	-7744
▁durfte	-7745
▁erkenn	-7746
▁förder	-7747
▁fühlen	-7748
▁glaube	-7749
▁kochen	-7750
▁ließen	-7751
▁machst	-7752
▁vollen	-7753
▁werfen	-7754
▁ältere	-7755
▁äußern	-7756
gliedert	-7757
legungen	-7758
▁Autorin	-7759
▁Fischer	-7760
▁Kapelle	-7761
▁Lehrers	-7762
▁Methode	-7763
▁Nachdem	-7764
▁Niemand	-7765
▁Pflicht	-7766
▁Sendung	-7767
▁bezeich	-7768
▁blieben	-7769
▁maximal	-7770
▁rechnen	-7771
▁zweimal	-7772
▁Ansprech	-7773
▁Begriffe	-7774
▁Glaubens	-7775
▁Rettungs	-7776
▁Schlange	-7777
▁Schmocht	-7778
▁Vorteile	-7779
▁Weisheit	-7780
▁angelegt	-7781
▁benutzen	-7782
▁fürchten	-7783
▁geistige	-7784
▁geordnet	-7785
▁geplante	-7786
▁gleicher	-7787
▁offenbar	-7788
auftragten	-7789
▁Baustelle	-7790
▁Beratungs	-7791
▁Jahrestag	-7792
▁Jänschwal	-7793
▁anschauen	-7794
▁benachbar	-7795
▁damaligen	-7796
▁empfiehlt	-7797
▁geschickt	-7798
▁gesichert	-7799
▁herrschte	-7800
▁konstrukt	-7801
▁vorgelegt	-7802
württemberg	-7803
▁Bestellung	-7804
▁Eigentlich	-7805
▁Franziskus	-7806
▁angewendet	-7807
▁begeistert	-7808
▁eingeführt	-7809
▁konsequent	-7810
ministeriums	-7811
▁Bedürfnisse	-7812
▁Flüchtlinge	-7813
▁Landratsamt	-7814
▁christliche	-7815
▁orientieren	-7816
▁rechtzeitig	-7817
▁schulischen	-7818
▁Realisierung	-7819
▁Unterschiede	-7820
▁christlichen	-7821
▁Ausstellungen	-7822
▁Organisatoren	-7823
▁gleichberecht	-7824
▁interessierte	-7825
▁Ansprechpartner	-7826
▁Internationalen	-7827
.,	-7828
ac	-7829
by	-7830
pu	-7831
sl	-7832
CDU	-7833
Wir	-7834
alk	-7835
don	-7836
egt	-7837
ese	-7838
nič	-7839
ree	-7840
ure	-7841
Ćiš	-7842
▁gn	-7843
aket	-7844
bast	-7845
elev	-7846
itor	-7847
keln	-7848
ners	-7849
▁	-7850
e	-7851
n	-7852
i	-7853
r	-7854
s	-7855
t	-7856
a	-7857
d	-7858
h	-7859
u	-7860
l	-7861
c	-7862
g	-7863
o	-7864
m	-7865
b	-7866
.	-7867
f	-7868
w	-7869
z	-7870
k	-7871
S	-7872
,	-7873
D	-7874
p	-7875
ü	-7876
v	-7877
ä	-7878
B	-7879
A	-7880
W	-7881
E	-7882
K	-7883
M	-7884
G	-7885
ö	-7886
I	-7887
F	-7888
V	-7889
H	-7890
L	-7891
P	-7892
T	-7893
J	-7894
R	-7895
ß	-7896
Z	-7897
N	-7898
j	-7899
-	-7900
U	-7901
0	-7902
1	-7903
O	-7904
?	-7905
2	-7906
!	-7907
C	-7908
y	-7909
9	-7910
"	-7911
5	-7912
x	-7913
:	-7914
3	-7915
–	-7916
4	-7917
8	-7918
6	-7919
„	-7920
“	-7921
)	-7922
(	-7923
7	-7924
Ü	-7925
;	-7926
/	-7927
Q	-7928
q	-7929
Ä	-7930
Ö	-7931
ł	-7932
š	-7933
ć	-7934
ě	-7935
§	-7936
»	-7937
«	-7938
ó	-7939
č	-7940
%	-7941
ž	-7942
Š	-7943
X	-7944
'	-7945
é	-7946
Ć	-7947
”	-7948
Ł	-7949
ń	-7950
€	-7951
́	-7952
Č	-7953
ś	-7954
ź	-7955
Y	-7956
ř	-7957
’	-7958
&	-7959
á	-7960
í	-7961
@	-7962
+	-7963
Ú	-7964
ë	-7965
ý	-7966
ŕ	-7967
‘	-7968
⁄	-7969
®	-7970
à	-7971
â	-7972
Ž	-7973
†	-7974
*	-7975
_	-7976
°	-7977
Ó	-7978
ê	-7979
ô	-7980
ę	-7981
Œ	-7982
ů	-7983
ż	-7984
е	-7985
и	-7986
м	-7987
н	-7988
о	-7989
п	-7990
ч	-7991
